{
  "version": "1.0",
  "truncation": null,
  "padding": null,
  "added_tokens": [
    {
      "id": 0,
      "content": "<pad>",
      "single_word": false,
      "lstrip": false,
      "rstrip": false,
      "normalized": false,
      "special": true
    },
    {
      "id": 1,
      "content": "<s>",
      "single_word": false,
      "lstrip": false,
      "rstrip": false,
      "normalized": false,
      "special": true
    },
    {
      "id": 2,
      "content": "</s>",
      "single_word": false,
      "lstrip": false,
      "rstrip": false,
      "normalized": false,
      "special": true
    },
    {
      "id": 3,
      "content": "<unk>",
      "single_word": false,
      "lstrip": false,
      "rstrip": false,
      "normalized": false,
      "special": true
    },
    {
      "id": 4,
      "content": "<mask>",
      "single_word": false,
      "lstrip": false,
      "rstrip": false,
      "normalized": false,
      "special": true
    }
  ],
  "normalizer": null,
  "pre_tokenizer": {
    "type": "Whitespace"
  },
  "post_processor": null,
  "decoder": null,
  "model": {
    "type": "BPE",
    "dropout": null,
    "unk_token": null,
    "continuing_subword_prefix": null,
    "end_of_word_suffix": null,
    "fuse_unk": false,
    "byte_fallback": false,
    "ignore_merges": false,
    "vocab": {
      "<pad>": 0,
      "<s>": 1,
      "</s>": 2,
      "<unk>": 3,
      "<mask>": 4,
      "!": 5,
      "\"": 6,
      "#": 7,
      "$": 8,
      "%": 9,
      "&": 10,
      "'": 11,
      "(": 12,
      ")": 13,
      "*": 14,
      "+": 15,
      ",": 16,
      "-": 17,
      ".": 18,
      "/": 19,
      "0": 20,
      "1": 21,
      "2": 22,
      "3": 23,
      "4": 24,
      "5": 25,
      "6": 26,
      "7": 27,
      "8": 28,
      "9": 29,
      ":": 30,
      ";": 31,
      "<": 32,
      "=": 33,
      ">": 34,
      "?": 35,
      "@": 36,
      "A": 37,
      "B": 38,
      "C": 39,
      "D": 40,
      "E": 41,
      "F": 42,
      "G": 43,
      "H": 44,
      "I": 45,
      "J": 46,
      "K": 47,
      "L": 48,
      "M": 49,
      "N": 50,
      "O": 51,
      "P": 52,
      "Q": 53,
      "R": 54,
      "S": 55,
      "T": 56,
      "U": 57,
      "V": 58,
      "W": 59,
      "X": 60,
      "Y": 61,
      "Z": 62,
      "[": 63,
      "\\": 64,
      "]": 65,
      "^": 66,
      "_": 67,
      "`": 68,
      "a": 69,
      "b": 70,
      "c": 71,
      "d": 72,
      "e": 73,
      "f": 74,
      "g": 75,
      "h": 76,
      "i": 77,
      "j": 78,
      "k": 79,
      "l": 80,
      "m": 81,
      "n": 82,
      "o": 83,
      "p": 84,
      "q": 85,
      "r": 86,
      "s": 87,
      "t": 88,
      "u": 89,
      "v": 90,
      "w": 91,
      "x": 92,
      "y": 93,
      "z": 94,
      "{": 95,
      "|": 96,
      "}": 97,
      "~": 98,
      "¡": 99,
      "¢": 100,
      "£": 101,
      "¤": 102,
      "¥": 103,
      "¦": 104,
      "§": 105,
      "¨": 106,
      "©": 107,
      "ª": 108,
      "«": 109,
      "¬": 110,
      "­": 111,
      "®": 112,
      "¯": 113,
      "°": 114,
      "±": 115,
      "²": 116,
      "³": 117,
      "´": 118,
      "µ": 119,
      "¶": 120,
      "·": 121,
      "¸": 122,
      "¹": 123,
      "º": 124,
      "»": 125,
      "¼": 126,
      "½": 127,
      "¾": 128,
      "¿": 129,
      "À": 130,
      "Á": 131,
      "Â": 132,
      "Ã": 133,
      "Ä": 134,
      "Å": 135,
      "Æ": 136,
      "Ç": 137,
      "È": 138,
      "É": 139,
      "Ê": 140,
      "Ë": 141,
      "Ì": 142,
      "Í": 143,
      "Î": 144,
      "Ð": 145,
      "Ñ": 146,
      "Ó": 147,
      "Ô": 148,
      "Ö": 149,
      "×": 150,
      "Ø": 151,
      "Ú": 152,
      "Ü": 153,
      "Þ": 154,
      "ß": 155,
      "à": 156,
      "á": 157,
      "â": 158,
      "ã": 159,
      "ä": 160,
      "å": 161,
      "æ": 162,
      "ç": 163,
      "è": 164,
      "é": 165,
      "ê": 166,
      "ë": 167,
      "ì": 168,
      "í": 169,
      "î": 170,
      "ï": 171,
      "ð": 172,
      "ñ": 173,
      "ò": 174,
      "ó": 175,
      "ô": 176,
      "õ": 177,
      "ö": 178,
      "÷": 179,
      "ø": 180,
      "ù": 181,
      "ú": 182,
      "û": 183,
      "ü": 184,
      "ý": 185,
      "þ": 186,
      "ÿ": 187,
      "ā": 188,
      "ă": 189,
      "ą": 190,
      "Ć": 191,
      "ć": 192,
      "Č": 193,
      "č": 194,
      "Đ": 195,
      "Ē": 196,
      "ē": 197,
      "ė": 198,
      "ę": 199,
      "ě": 200,
      "ğ": 201,
      "ġ": 202,
      "Ħ": 203,
      "ħ": 204,
      "Ī": 205,
      "ī": 206,
      "İ": 207,
      "ı": 208,
      "Ł": 209,
      "ł": 210,
      "ń": 211,
      "ň": 212,
      "Ō": 213,
      "ō": 214,
      "ŏ": 215,
      "ő": 216,
      "Œ": 217,
      "œ": 218,
      "ř": 219,
      "Ś": 220,
      "ś": 221,
      "Ş": 222,
      "ş": 223,
      "Š": 224,
      "š": 225,
      "Ţ": 226,
      "ţ": 227,
      "ū": 228,
      "Ÿ": 229,
      "ź": 230,
      "Ż": 231,
      "ż": 232,
      "Ž": 233,
      "ž": 234,
      "Ƙ": 235,
      "Ʀ": 236,
      "ǀ": 237,
      "ǃ": 238,
      "ǐ": 239,
      "ș": 240,
      "ț": 241,
      "ə": 242,
      "ʊ": 243,
      "ʻ": 244,
      "ʼ": 245,
      "ʽ": 246,
      "ʿ": 247,
      "ˆ": 248,
      "ˈ": 249,
      "˚": 250,
      "˜": 251,
      "˝": 252,
      "̀": 253,
      "́": 254,
      "̄": 255,
      "̈": 256,
      "̧": 257,
      ";": 258,
      "Α": 259,
      "Ζ": 260,
      "Ι": 261,
      "Λ": 262,
      "Ν": 263,
      "Τ": 264,
      "Ω": 265,
      "ά": 266,
      "ί": 267,
      "α": 268,
      "β": 269,
      "ε": 270,
      "ι": 271,
      "κ": 272,
      "μ": 273,
      "ν": 274,
      "ο": 275,
      "π": 276,
      "ρ": 277,
      "ς": 278,
      "σ": 279,
      "τ": 280,
      "φ": 281,
      "ό": 282,
      "ώ": 283,
      "ϟ": 284,
      "І": 285,
      "Ћ": 286,
      "К": 287,
      "М": 288,
      "О": 289,
      "П": 290,
      "С": 291,
      "У": 292,
      "а": 293,
      "б": 294,
      "в": 295,
      "д": 296,
      "е": 297,
      "з": 298,
      "и": 299,
      "й": 300,
      "к": 301,
      "л": 302,
      "м": 303,
      "н": 304,
      "о": 305,
      "п": 306,
      "р": 307,
      "с": 308,
      "т": 309,
      "у": 310,
      "ы": 311,
      "ь": 312,
      "ю": 313,
      "я": 314,
      "і": 315,
      "ї": 316,
      "Ӓ": 317,
      "Ӧ": 318,
      "Ԯ": 319,
      "ן": 320,
      "أ": 321,
      "ا": 322,
      "ب": 323,
      "ة": 324,
      "ت": 325,
      "ج": 326,
      "ح": 327,
      "ر": 328,
      "س": 329,
      "ش": 330,
      "ع": 331,
      "ف": 332,
      "ك": 333,
      "ل": 334,
      "م": 335,
      "و": 336,
      "ي": 337,
      "ง": 338,
      "ต": 339,
      "บ": 340,
      "ป": 341,
      "พ": 342,
      "ย": 343,
      "ร": 344,
      "ะ": 345,
      "ู": 346,
      "ḍ": 347,
      "Ḥ": 348,
      "ḥ": 349,
      "ṣ": 350,
      "ạ": 351,
      "ả": 352,
      "ấ": 353,
      "ế": 354,
      "ễ": 355,
      "ị": 356,
      "ồ": 357,
      "ἶ": 358,
      "ὴ": 359,
      "​": 360,
      "‍": 361,
      "‎": 362,
      "‏": 363,
      "‐": 364,
      "‑": 365,
      "‒": 366,
      "–": 367,
      "—": 368,
      "―": 369,
      "‘": 370,
      "’": 371,
      "‚": 372,
      "“": 373,
      "”": 374,
      "„": 375,
      "‟": 376,
      "†": 377,
      "‡": 378,
      "•": 379,
      "…": 380,
      "‪": 381,
      "‫": 382,
      "‬": 383,
      "‭": 384,
      "‰": 385,
      "′": 386,
      "″": 387,
      "‹": 388,
      "‼": 389,
      "⁄": 390,
      "⁮": 391,
      "⁰": 392,
      "₩": 393,
      "€": 394,
      "℃": 395,
      "™": 396,
      "⅓": 397,
      "⅔": 398,
      "⅛": 399,
      "⅜": 400,
      "→": 401,
      "∑": 402,
      "−": 403,
      "∙": 404,
      "∼": 405,
      "─": 406,
      "█": 407,
      "■": 408,
      "▬": 409,
      "▲": 410,
      "▼": 411,
      "●": 412,
      "★": 413,
      "☆": 414,
      "☺": 415,
      "♡": 416,
      "♥": 417,
      "❤": 418,
      "き": 419,
      "ご": 420,
      "さ": 421,
      "た": 422,
      "っ": 423,
      "て": 424,
      "ろ": 425,
      "ん": 426,
      "コ": 427,
      "ゴ": 428,
      "ネ": 429,
      "ル": 430,
      "ロ": 431,
      "ー": 432,
      "世": 433,
      "个": 434,
      "中": 435,
      "你": 436,
      "分": 437,
      "呀": 438,
      "四": 439,
      "回": 440,
      "声": 441,
      "外": 442,
      "女": 443,
      "家": 444,
      "寝": 445,
      "帰": 446,
      "年": 447,
      "心": 448,
      "新": 449,
      "方": 450,
      "明": 451,
      "春": 452,
      "曆": 453,
      "有": 454,
      "朝": 455,
      "来": 456,
      "没": 457,
      "游": 458,
      "界": 459,
      "等": 460,
      "節": 461,
      "紅": 462,
      "綠": 463,
      "縄": 464,
      "縯": 465,
      "自": 466,
      "藍": 467,
      "農": 468,
      "过": 469,
      "钱": 470,
      "门": 471,
      "音": 472,
      "강": 473,
      "남": 474,
      "스": 475,
      "일": 476,
      "타": 477,
      "": 478,
      "": 479,
      "": 480,
      "ﬀ": 481,
      "ﬁ": 482,
      "ﬂ": 483,
      "️": 484,
      "﻿": 485,
      "！": 486,
      "（": 487,
      "）": 488,
      "，": 489,
      "Ｍ": 490,
      "Ｓ": 491,
      "￥": 492,
      "￼": 493,
      "�": 494,
      "💀": 495,
      "😳": 496,
      "🙏": 497,
      "he": 498,
      "in": 499,
      "an": 500,
      "the": 501,
      "er": 502,
      "on": 503,
      "re": 504,
      "at": 505,
      "ed": 506,
      "en": 507,
      "to": 508,
      "st": 509,
      "or": 510,
      "ing": 511,
      "th": 512,
      "ar": 513,
      "al": 514,
      "ou": 515,
      "is": 516,
      "as": 517,
      "and": 518,
      "of": 519,
      "it": 520,
      "es": 521,
      "ic": 522,
      "le": 523,
      "om": 524,
      "il": 525,
      "id": 526,
      "be": 527,
      "ion": 528,
      "se": 529,
      "ent": 530,
      "ac": 531,
      "ve": 532,
      "ad": 533,
      "ay": 534,
      "for": 535,
      "am": 536,
      "ol": 537,
      "ow": 538,
      "ly": 539,
      "im": 540,
      "ch": 541,
      "ig": 542,
      "ro": 543,
      "was": 544,
      "ir": 545,
      "ter": 546,
      "ur": 547,
      "ver": 548,
      "The": 549,
      "that": 550,
      "ot": 551,
      "wh": 552,
      "un": 553,
      "ut": 554,
      "sa": 555,
      "el": 556,
      "wi": 557,
      "ag": 558,
      "ha": 559,
      "ri": 560,
      "with": 561,
      "are": 562,
      "ce": 563,
      "et": 564,
      "ill": 565,
      "ld": 566,
      "us": 567,
      "his": 568,
      "de": 569,
      "said": 570,
      "ab": 571,
      "ne": 572,
      "pe": 573,
      "li": 574,
      "con": 575,
      "ation": 576,
      "ers": 577,
      "lo": 578,
      "mo": 579,
      "oun": 580,
      "res": 581,
      "fr": 582,
      "out": 583,
      "ul": 584,
      "our": 585,
      "com": 586,
      "igh": 587,
      "we": 588,
      "all": 589,
      "ke": 590,
      "her": 591,
      "ther": 592,
      "ain": 593,
      "op": 594,
      "ct": 595,
      "sh": 596,
      "ap": 597,
      "em": 598,
      "su": 599,
      "ear": 600,
      "by": 601,
      "tr": 602,
      "have": 603,
      "pl": 604,
      "from": 605,
      "one": 606,
      "has": 607,
      "ate": 608,
      "pro": 609,
      "ast": 610,
      "af": 611,
      "te": 612,
      "ight": 613,
      "so": 614,
      "day": 615,
      "ex": 616,
      "art": 617,
      "ould": 618,
      "man": 619,
      "di": 620,
      "00": 621,
      "po": 622,
      "fe": 623,
      "ant": 624,
      "not": 625,
      "who": 626,
      "end": 627,
      "ment": 628,
      "ge": 629,
      "ack": 630,
      "up": 631,
      "gh": 632,
      "ort": 633,
      "whe": 634,
      "year": 635,
      "had": 636,
      "ity": 637,
      "over": 638,
      "ist": 639,
      "cl": 640,
      "ess": 641,
      "ere": 642,
      "but": 643,
      "ice": 644,
      "ust": 645,
      "she": 646,
      "od": 647,
      "ome": 648,
      "wor": 649,
      "au": 650,
      "ard": 651,
      "ak": 652,
      "own": 653,
      "per": 654,
      "they": 655,
      "ive": 656,
      "were": 657,
      "been": 658,
      "their": 659,
      "gr": 660,
      "qu": 661,
      "sp": 662,
      "ound": 663,
      "after": 664,
      "do": 665,
      "red": 666,
      "tor": 667,
      "off": 668,
      "ide": 669,
      "this": 670,
      "ich": 671,
      "will": 672,
      "ies": 673,
      "der": 674,
      "ok": 675,
      "go": 676,
      "ial": 677,
      "fo": 678,
      "cr": 679,
      "ber": 680,
      "me": 681,
      "ough": 682,
      "bo": 683,
      "tim": 684,
      "pr": 685,
      "port": 686,
      "ev": 687,
      "if": 688,
      "act": 689,
      "um": 690,
      "In": 691,
      "He": 692,
      "ell": 693,
      "20": 694,
      "ong": 695,
      "ous": 696,
      "It": 697,
      "est": 698,
      "can": 699,
      "ine": 700,
      "which": 701,
      "ding": 702,
      "aw": 703,
      "ck": 704,
      "no": 705,
      "ie": 706,
      "bl": 707,
      "iv": 708,
      "br": 709,
      "ia": 710,
      "co": 711,
      "ho": 712,
      "age": 713,
      "ep": 714,
      "wo": 715,
      "av": 716,
      "now": 717,
      "ame": 718,
      "ally": 719,
      "ace": 720,
      "ts": 721,
      "about": 722,
      "ans": 723,
      "ail": 724,
      "when": 725,
      "ary": 726,
      "che": 727,
      "ated": 728,
      "more": 729,
      "you": 730,
      "ren": 731,
      "mer": 732,
      "old": 733,
      "would": 734,
      "other": 735,
      ".'": 736,
      "Ch": 737,
      "ake": 738,
      "him": 739,
      "ile": 740,
      "ass": 741,
      "An": 742,
      "ople": 743,
      "att": 744,
      "ind": 745,
      "pol": 746,
      "its": 747,
      "say": 748,
      "ence": 749,
      "dis": 750,
      "ite": 751,
      "201": 752,
      "any": 753,
      "also": 754,
      "work": 755,
      "very": 756,
      "ions": 757,
      "fir": 758,
      "cent": 759,
      "ff": 760,
      "ident": 761,
      "ue": 762,
      "people": 763,
      "new": 764,
      ",\"": 765,
      "ree": 766,
      "pp": 767,
      "ict": 768,
      "part": 769,
      "cor": 770,
      "cre": 771,
      "some": 772,
      "ud": 773,
      "get": 774,
      "oll": 775,
      "my": 776,
      "mon": 777,
      "str": 778,
      "ign": 779,
      "Br": 780,
      "time": 781,
      "than": 782,
      "two": 783,
      "ss": 784,
      "comp": 785,
      "able": 786,
      "ick": 787,
      "pres": 788,
      "--": 789,
      "ure": 790,
      "just": 791,
      "fore": 792,
      "St": 793,
      "Mr": 794,
      "into": 795,
      "ark": 796,
      "them": 797,
      "ish": 798,
      "thing": 799,
      "coun": 800,
      "ian": 801,
      "med": 802,
      "ild": 803,
      "ip": 804,
      "told": 805,
      "ek": 806,
      "land": 807,
      "like": 808,
      "ser": 809,
      "way": 810,
      ".\"": 811,
      "But": 812,
      "there": 813,
      "pre": 814,
      "ach": 815,
      "We": 816,
      "could": 817,
      "last": 818,
      "ble": 819,
      "ted": 820,
      "ang": 821,
      "air": 822,
      "back": 823,
      "years": 824,
      "play": 825,
      "ath": 826,
      "cau": 827,
      "son": 828,
      "ade": 829,
      "ra": 830,
      "don": 831,
      "ance": 832,
      "ning": 833,
      "first": 834,
      "ty": 835,
      "amp": 836,
      "car": 837,
      "ved": 838,
      "ry": 839,
      "ting": 840,
      "sel": 841,
      "Ne": 842,
      "ink": 843,
      "down": 844,
      "hel": 845,
      "19": 846,
      "cont": 847,
      "fam": 848,
      "min": 849,
      "ire": 850,
      "ft": 851,
      "ily": 852,
      "iss": 853,
      "ater": 854,
      "leg": 855,
      "ug": 856,
      "what": 857,
      "Th": 858,
      "ase": 859,
      "cause": 860,
      "iz": 861,
      "dr": 862,
      "ving": 863,
      "inter": 864,
      "Un": 865,
      "used": 866,
      "before": 867,
      "fl": 868,
      "ens": 869,
      "ical": 870,
      "She": 871,
      "ations": 872,
      "where": 873,
      "again": 874,
      "ful": 875,
      "being": 876,
      ",'": 877,
      "ton": 878,
      "week": 879,
      "clu": 880,
      "ob": 881,
      "enc": 882,
      "show": 883,
      "urn": 884,
      "report": 885,
      "des": 886,
      "child": 887,
      "spe": 888,
      "most": 889,
      "ious": 890,
      "call": 891,
      "did": 892,
      "try": 893,
      "right": 894,
      "side": 895,
      "uring": 896,
      "ition": 897,
      "Al": 898,
      "ates": 899,
      "cho": 900,
      "home": 901,
      "fin": 902,
      "offic": 903,
      "200": 904,
      "under": 905,
      "cond": 906,
      "sc": 907,
      "New": 908,
      "tri": 909,
      "sur": 910,
      "thr": 911,
      "int": 912,
      "wom": 913,
      "cur": 914,
      "reat": 915,
      "how": 916,
      "ubl": 917,
      "add": 918,
      "because": 919,
      "ph": 920,
      "ction": 921,
      "oup": 922,
      "left": 923,
      "ited": 924,
      "ave": 925,
      "look": 926,
      "rem": 927,
      "found": 928,
      "ress": 929,
      "want": 930,
      "000": 931,
      "police": 932,
      "month": 933,
      "while": 934,
      "cer": 935,
      "only": 936,
      "ince": 937,
      "ult": 938,
      "ef": 939,
      "ann": 940,
      "three": 941,
      "vers": 942,
      "Le": 943,
      "ash": 944,
      "aking": 945,
      "ured": 946,
      "hed": 947,
      "come": 948,
      "sto": 949,
      "ents": 950,
      "CN": 951,
      "bet": 952,
      "illion": 953,
      "led": 954,
      "gu": 955,
      "ating": 956,
      "head": 957,
      "als": 958,
      "vis": 959,
      "CNN": 960,
      "ose": 961,
      "anc": 962,
      "pt": 963,
      "And": 964,
      "cted": 965,
      "made": 966,
      "cess": 967,
      "char": 968,
      "family": 969,
      "og": 970,
      "bu": 971,
      "then": 972,
      "ational": 973,
      "comm": 974,
      "aim": 975,
      "form": 976,
      "pos": 977,
      "cour": 978,
      "set": 979,
      "Fr": 980,
      "lead": 981,
      "riend": 982,
      "ters": 983,
      "though": 984,
      "ublic": 985,
      "overn": 986,
      "during": 987,
      "against": 988,
      "reg": 989,
      "read": 990,
      "Wh": 991,
      "life": 992,
      "alk": 993,
      "ves": 994,
      "pict": 995,
      "ret": 996,
      "through": 997,
      "ouse": 998,
      "vic": 999,
      "Ar": 1000,
      "help": 1001,
      "even": 1002,
      "ise": 1003,
      "Mar": 1004,
      "ced": 1005,
      "rest": 1006,
      "ities": 1007,
      "kill": 1008,
      "friend": 1009,
      "well": 1010,
      "az": 1011,
      "many": 1012,
      ".’": 1013,
      "rel": 1014,
      "ven": 1015,
      "They": 1016,
      "Ro": 1017,
      "cle": 1018,
      "..": 1019,
      "appe": 1020,
      "every": 1021,
      "says": 1022,
      "du": 1023,
      "ever": 1024,
      "De": 1025,
      "ather": 1026,
      "cording": 1027,
      "long": 1028,
      "know": 1029,
      "claim": 1030,
      "ital": 1031,
      "put": 1032,
      "cial": 1033,
      "ask": 1034,
      "vie": 1035,
      "dec": 1036,
      "ors": 1037,
      "vide": 1038,
      "fi": 1039,
      "make": 1040,
      "atch": 1041,
      "ner": 1042,
      "around": 1043,
      "ster": 1044,
      "ank": 1045,
      "uch": 1046,
      "clo": 1047,
      "world": 1048,
      "see": 1049,
      "This": 1050,
      "cover": 1051,
      "ons": 1052,
      "going": 1053,
      "self": 1054,
      "think": 1055,
      "inclu": 1056,
      "ased": 1057,
      "chool": 1058,
      "need": 1059,
      "Jo": 1060,
      "pers": 1061,
      "beli": 1062,
      "sy": 1063,
      "use": 1064,
      "10": 1065,
      "test": 1066,
      "children": 1067,
      "ctor": 1068,
      "As": 1069,
      "ins": 1070,
      "overnment": 1071,
      "sl": 1072,
      "ffer": 1073,
      "war": 1074,
      "million": 1075,
      "Brit": 1076,
      "vest": 1077,
      "take": 1078,
      "col": 1079,
      "Amer": 1080,
      "hand": 1081,
      "came": 1082,
      "law": 1083,
      "Americ": 1084,
      "team": 1085,
      "En": 1086,
      "ward": 1087,
      "night": 1088,
      "start": 1089,
      "ger": 1090,
      "mil": 1091,
      "ten": 1092,
      "aren": 1093,
      "ris": 1094,
      "four": 1095,
      "line": 1096,
      "cus": 1097,
      "Re": 1098,
      "ollow": 1099,
      "gan": 1100,
      "ling": 1101,
      "tain": 1102,
      "should": 1103,
      "ES": 1104,
      "cut": 1105,
      "app": 1106,
      "may": 1107,
      "happ": 1108,
      "bed": 1109,
      "arri": 1110,
      "ged": 1111,
      "ah": 1112,
      "miss": 1113,
      "ms": 1114,
      "ED": 1115,
      "your": 1116,
      "outh": 1117,
      "still": 1118,
      "xt": 1119,
      "cap": 1120,
      "let": 1121,
      "view": 1122,
      "tory": 1123,
      "mother": 1124,
      "ures": 1125,
      "stand": 1126,
      "attack": 1127,
      "those": 1128,
      "os": 1129,
      "hen": 1130,
      "esday": 1131,
      "ib": 1132,
      "By": 1133,
      "since": 1134,
      "ared": 1135,
      "mem": 1136,
      "ale": 1137,
      "bre": 1138,
      "alth": 1139,
      "high": 1140,
      "ix": 1141,
      "win": 1142,
      "ual": 1143,
      "ement": 1144,
      "sm": 1145,
      "run": 1146,
      "ody": 1147,
      "bro": 1148,
      "emp": 1149,
      "EST": 1150,
      "jo": 1151,
      "und": 1152,
      "invest": 1153,
      "death": 1154,
      "augh": 1155,
      "got": 1156,
      "Se": 1157,
      "irl": 1158,
      "tak": 1159,
      "country": 1160,
      "bor": 1161,
      "ney": 1162,
      "ime": 1163,
      "ason": 1164,
      "les": 1165,
      "ments": 1166,
      "near": 1167,
      "follow": 1168,
      "ci": 1169,
      "school": 1170,
      "No": 1171,
      "spo": 1172,
      "group": 1173,
      "government": 1174,
      "called": 1175,
      "official": 1176,
      "Mo": 1177,
      "ween": 1178,
      "je": 1179,
      "such": 1180,
      "gest": 1181,
      "ele": 1182,
      "del": 1183,
      "aff": 1184,
      "sign": 1185,
      "ied": 1186,
      "ama": 1187,
      "much": 1188,
      "ener": 1189,
      "cal": 1190,
      "less": 1191,
      "including": 1192,
      "There": 1193,
      "ames": 1194,
      "dri": 1195,
      "ular": 1196,
      "For": 1197,
      "kes": 1198,
      "ross": 1199,
      "men": 1200,
      "United": 1201,
      "ings": 1202,
      "sho": 1203,
      "person": 1204,
      "cu": 1205,
      "between": 1206,
      "vi": 1207,
      "ball": 1208,
      "national": 1209,
      "public": 1210,
      "former": 1211,
      "top": 1212,
      "ower": 1213,
      "fer": 1214,
      "vol": 1215,
      "ca": 1216,
      "ley": 1217,
      "care": 1218,
      "court": 1219,
      "IS": 1220,
      "At": 1221,
      "ma": 1222,
      "ran": 1223,
      "good": 1224,
      "On": 1225,
      "second": 1226,
      "eng": 1227,
      "book": 1228,
      "ister": 1229,
      "ists": 1230,
      "Mon": 1231,
      "ys": 1232,
      "unt": 1233,
      "wr": 1234,
      "Pr": 1235,
      "2013": 1236,
      "ham": 1237,
      "num": 1238,
      "sent": 1239,
      "ll": 1240,
      "video": 1241,
      "ned": 1242,
      "according": 1243,
      "ened": 1244,
      "giv": 1245,
      "ship": 1246,
      "tle": 1247,
      "Pol": 1248,
      "body": 1249,
      "youn": 1250,
      "plan": 1251,
      "ised": 1252,
      "Be": 1253,
      "sup": 1254,
      "took": 1255,
      "ith": 1256,
      "Eng": 1257,
      "sen": 1258,
      "ics": 1259,
      "stud": 1260,
      "sex": 1261,
      "ury": 1262,
      "bus": 1263,
      "resident": 1264,
      "never": 1265,
      "away": 1266,
      "stat": 1267,
      "resp": 1268,
      "ork": 1269,
      "sure": 1270,
      "girl": 1271,
      "hu": 1272,
      "pri": 1273,
      "investig": 1274,
      "def": 1275,
      "ina": 1276,
      "contr": 1277,
      "Af": 1278,
      "place": 1279,
      "quest": 1280,
      "ds": 1281,
      "thor": 1282,
      "pect": 1283,
      "pass": 1284,
      "added": 1285,
      "women": 1286,
      "days": 1287,
      "room": 1288,
      "ax": 1289,
      "hour": 1290,
      "next": 1291,
      "ative": 1292,
      "kn": 1293,
      "aring": 1294,
      "ral": 1295,
      "pictured": 1296,
      "Ob": 1297,
      "Co": 1298,
      "ible": 1299,
      "hoto": 1300,
      "another": 1301,
      "Lon": 1302,
      "woman": 1303,
      "later": 1304,
      "fac": 1305,
      "ched": 1306,
      "vice": 1307,
      "bers": 1308,
      "50": 1309,
      "ier": 1310,
      "bs": 1311,
      "went": 1312,
      "uck": 1313,
      "io": 1314,
      "five": 1315,
      "olog": 1316,
      "London": 1317,
      "house": 1318,
      "ines": 1319,
      "Nor": 1320,
      "case": 1321,
      "seen": 1322,
      "imp": 1323,
      "ness": 1324,
      "oney": 1325,
      "state": 1326,
      "contin": 1327,
      "these": 1328,
      "here": 1329,
      "spital": 1330,
      "press": 1331,
      "30": 1332,
      "fil": 1333,
      "la": 1334,
      "big": 1335,
      "arch": 1336,
      "mber": 1337,
      "lit": 1338,
      "Man": 1339,
      "fect": 1340,
      "pay": 1341,
      "Car": 1342,
      "Bo": 1343,
      "iday": 1344,
      "rist": 1345,
      "den": 1346,
      "sol": 1347,
      "Li": 1348,
      "photo": 1349,
      "too": 1350,
      "12": 1351,
      "Mc": 1352,
      "months": 1353,
      "ually": 1354,
      "hal": 1355,
      "same": 1356,
      "real": 1357,
      "uary": 1358,
      "foot": 1359,
      "does": 1360,
      "wit": 1361,
      "aged": 1362,
      "alleg": 1363,
      "rele": 1364,
      "sk": 1365,
      "11": 1366,
      "mark": 1367,
      "uro": 1368,
      "lar": 1369,
      "reported": 1370,
      "exper": 1371,
      "support": 1372,
      "clear": 1373,
      "cident": 1374,
      "hn": 1375,
      "ces": 1376,
      "oper": 1377,
      "ways": 1378,
      "post": 1379,
      "both": 1380,
      "sing": 1381,
      "taken": 1382,
      "camp": 1383,
      "cons": 1384,
      "ants": 1385,
      "2012": 1386,
      "mit": 1387,
      "today": 1388,
      "par": 1389,
      "issu": 1390,
      "Con": 1391,
      "ended": 1392,
      "ility": 1393,
      "won": 1394,
      "ago": 1395,
      "Sun": 1396,
      "blo": 1397,
      "father": 1398,
      "ars": 1399,
      "Com": 1400,
      "York": 1401,
      "really": 1402,
      "ivers": 1403,
      "John": 1404,
      "face": 1405,
      "allow": 1406,
      "Bar": 1407,
      "ges": 1408,
      "When": 1409,
      "If": 1410,
      "young": 1411,
      "Obama": 1412,
      "died": 1413,
      "far": 1414,
      "atur": 1415,
      "cri": 1416,
      "rent": 1417,
      "ets": 1418,
      "ub": 1419,
      "ready": 1420,
      "18": 1421,
      "ague": 1422,
      "You": 1423,
      "six": 1424,
      "turn": 1425,
      "sub": 1426,
      "move": 1427,
      "15": 1428,
      "sha": 1429,
      "oc": 1430,
      "ison": 1431,
      "feel": 1432,
      "Dav": 1433,
      "ste": 1434,
      "produ": 1435,
      "ained": 1436,
      "nor": 1437,
      "poss": 1438,
      "dire": 1439,
      "West": 1440,
      "hol": 1441,
      "Wor": 1442,
      "inj": 1443,
      "ency": 1444,
      "pat": 1445,
      "That": 1446,
      "How": 1447,
      "AT": 1448,
      "wife": 1449,
      "didn": 1450,
      "Cl": 1451,
      "health": 1452,
      "Tu": 1453,
      "using": 1454,
      "bab": 1455,
      "lot": 1456,
      "So": 1457,
      "arrest": 1458,
      "ages": 1459,
      "ific": 1460,
      "ered": 1461,
      "vel": 1462,
      "exp": 1463,
      "Police": 1464,
      "South": 1465,
      "mat": 1466,
      "recent": 1467,
      "milit": 1468,
      "Sp": 1469,
      "det": 1470,
      "net": 1471,
      "sever": 1472,
      "prev": 1473,
      "ange": 1474,
      "rece": 1475,
      "Sy": 1476,
      "sus": 1477,
      "band": 1478,
      "best": 1479,
      "Rep": 1480,
      "ony": 1481,
      "known": 1482,
      "ene": 1483,
      "urs": 1484,
      "number": 1485,
      "daugh": 1486,
      "shot": 1487,
      "polit": 1488,
      "sit": 1489,
      "ond": 1490,
      "'.": 1491,
      "light": 1492,
      "late": 1493,
      "fire": 1494,
      "killed": 1495,
      "Euro": 1496,
      "buil": 1497,
      "incre": 1498,
      "aid": 1499,
      "water": 1500,
      "half": 1501,
      "ought": 1502,
      "gy": 1503,
      "iness": 1504,
      "president": 1505,
      "May": 1506,
      "grap": 1507,
      "game": 1508,
      "differ": 1509,
      "spokes": 1510,
      "ending": 1511,
      "stri": 1512,
      "author": 1513,
      "few": 1514,
      "One": 1515,
      "ore": 1516,
      "iting": 1517,
      "ute": 1518,
      "loy": 1519,
      "ont": 1520,
      "keep": 1521,
      "list": 1522,
      "ref": 1523,
      "met": 1524,
      "curity": 1525,
      "ory": 1526,
      "amer": 1527,
      "Tr": 1528,
      "season": 1529,
      "eld": 1530,
      "vid": 1531,
      "British": 1532,
      "Ste": 1533,
      "money": 1534,
      "pop": 1535,
      "stem": 1536,
      "World": 1537,
      "Sh": 1538,
      "paren": 1539,
      "prom": 1540,
      "ffic": 1541,
      "Pe": 1542,
      "England": 1543,
      "Aust": 1544,
      "Gr": 1545,
      "company": 1546,
      "ext": 1547,
      "ember": 1548,
      "mor": 1549,
      "colle": 1550,
      "order": 1551,
      "ject": 1552,
      "return": 1553,
      "ford": 1554,
      "ones": 1555,
      "train": 1556,
      "commun": 1557,
      "reve": 1558,
      "tow": 1559,
      "gre": 1560,
      "American": 1561,
      "having": 1562,
      "thought": 1563,
      "Ju": 1564,
      "ately": 1565,
      "tors": 1566,
      "pped": 1567,
      "Jan": 1568,
      "Is": 1569,
      "Go": 1570,
      "asked": 1571,
      "val": 1572,
      "ished": 1573,
      "talk": 1574,
      "city": 1575,
      "until": 1576,
      "open": 1577,
      "without": 1578,
      "ety": 1579,
      "President": 1580,
      "His": 1581,
      "ern": 1582,
      "believ": 1583,
      "hospital": 1584,
      "saying": 1585,
      "eve": 1586,
      "uss": 1587,
      "16": 1588,
      "Coun": 1589,
      "hit": 1590,
      "proble": 1591,
      "walk": 1592,
      "ey": 1593,
      "sum": 1594,
      "find": 1595,
      "something": 1596,
      "invol": 1597,
      "prof": 1598,
      "ground": 1599,
      "pected": 1600,
      "cas": 1601,
      "Cr": 1602,
      "To": 1603,
      "hours": 1604,
      "point": 1605,
      "Sunday": 1606,
      "deal": 1607,
      "victim": 1608,
      "little": 1609,
      "ying": 1610,
      "daughter": 1611,
      "PD": 1612,
      "ional": 1613,
      "recor": 1614,
      "ord": 1615,
      "gun": 1616,
      "appro": 1617,
      "UK": 1618,
      "ired": 1619,
      "comple": 1620,
      "Min": 1621,
      "statement": 1622,
      "ager": 1623,
      "each": 1624,
      "ient": 1625,
      "ism": 1626,
      "Miss": 1627,
      "Christ": 1628,
      "Monday": 1629,
      "power": 1630,
      "Mic": 1631,
      "job": 1632,
      "gl": 1633,
      "working": 1634,
      "Bl": 1635,
      "present": 1636,
      "14": 1637,
      "bur": 1638,
      "ror": 1639,
      "close": 1640,
      "times": 1641,
      "mid": 1642,
      "past": 1643,
      "lier": 1644,
      "idence": 1645,
      "cot": 1646,
      "Europe": 1647,
      "coup": 1648,
      "mur": 1649,
      "search": 1650,
      "hard": 1651,
      "por": 1652,
      "velo": 1653,
      "fort": 1654,
      "coming": 1655,
      "Har": 1656,
      "City": 1657,
      "across": 1658,
      "remain": 1659,
      "following": 1660,
      "Ger": 1661,
      "given": 1662,
      "sport": 1663,
      "cost": 1664,
      "Tuesday": 1665,
      "bit": 1666,
      "ined": 1667,
      "fight": 1668,
      "amed": 1669,
      "dam": 1670,
      "action": 1671,
      "mar": 1672,
      "system": 1673,
      "aign": 1674,
      "After": 1675,
      "cret": 1676,
      "ps": 1677,
      "lim": 1678,
      "tell": 1679,
      "area": 1680,
      "ali": 1681,
      "17": 1682,
      "iversity": 1683,
      "front": 1684,
      "star": 1685,
      "Dr": 1686,
      "viol": 1687,
      "une": 1688,
      "ats": 1689,
      "Friday": 1690,
      "along": 1691,
      "David": 1692,
      "great": 1693,
      "ives": 1694,
      "boy": 1695,
      "descri": 1696,
      "reveal": 1697,
      "ped": 1698,
      "organ": 1699,
      "officials": 1700,
      "dead": 1701,
      "taking": 1702,
      "fail": 1703,
      "trans": 1704,
      "pite": 1705,
      "bar": 1706,
      "Wed": 1707,
      "always": 1708,
      "club": 1709,
      "ird": 1710,
      "friends": 1711,
      "alleged": 1712,
      ",’": 1713,
      "already": 1714,
      "Ph": 1715,
      "jor": 1716,
      "parents": 1717,
      "business": 1718,
      "suc": 1719,
      "Austral": 1720,
      "drug": 1721,
      "trave": 1722,
      "ically": 1723,
      "couple": 1724,
      "plac": 1725,
      "early": 1726,
      "13": 1727,
      "gener": 1728,
      "mes": 1729,
      "members": 1730,
      "Col": 1731,
      "ATED": 1732,
      "ision": 1733,
      "UPD": 1734,
      "hind": 1735,
      "UPDATED": 1736,
      "ized": 1737,
      "199": 1738,
      "bel": 1739,
      "believe": 1740,
      "ric": 1741,
      "...": 1742,
      "campaign": 1743,
      "sea": 1744,
      "making": 1745,
      "Ge": 1746,
      "),": 1747,
      "Her": 1748,
      "iam": 1749,
      "suffer": 1750,
      "Wedn": 1751,
      "BL": 1752,
      "Wednesday": 1753,
      "change": 1754,
      "stre": 1755,
      "ush": 1756,
      "road": 1757,
      "concer": 1758,
      "current": 1759,
      "gram": 1760,
      "inal": 1761,
      "North": 1762,
      "TV": 1763,
      "enn": 1764,
      "outside": 1765,
      "prison": 1766,
      "25": 1767,
      "covered": 1768,
      "poin": 1769,
      "PU": 1770,
      "event": 1771,
      "military": 1772,
      "phone": 1773,
      "Will": 1774,
      "ISH": 1775,
      "treat": 1776,
      "meet": 1777,
      "soci": 1778,
      "develo": 1779,
      "started": 1780,
      "murder": 1781,
      "acc": 1782,
      "give": 1783,
      "Ms": 1784,
      "PUBL": 1785,
      "ISHED": 1786,
      "PUBLISHED": 1787,
      "fact": 1788,
      "round": 1789,
      "heard": 1790,
      "feat": 1791,
      "Russ": 1792,
      "ived": 1793,
      "chang": 1794,
      "mom": 1795,
      "ards": 1796,
      "ches": 1797,
      "love": 1798,
      "formation": 1799,
      "incident": 1800,
      "Satur": 1801,
      "fun": 1802,
      "become": 1803,
      "cele": 1804,
      "whether": 1805,
      "saw": 1806,
      "weeks": 1807,
      "behind": 1808,
      "All": 1809,
      "town": 1810,
      "free": 1811,
      "security": 1812,
      "different": 1813,
      "seem": 1814,
      "wanted": 1815,
      "news": 1816,
      "imes": 1817,
      "might": 1818,
      "hus": 1819,
      "Saturday": 1820,
      "ief": 1821,
      "threat": 1822,
      "jud": 1823,
      "sug": 1824,
      "mak": 1825,
      "Thurs": 1826,
      "wa": 1827,
      "rote": 1828,
      "several": 1829,
      "que": 1830,
      "istr": 1831,
      "Thursday": 1832,
      "bal": 1833,
      "celebr": 1834,
      "ified": 1835,
      "Inter": 1836,
      "local": 1837,
      "ull": 1838,
      "husband": 1839,
      "League": 1840,
      "vo": 1841,
      "hes": 1842,
      "Scr": 1843,
      "break": 1844,
      "ming": 1845,
      "legal": 1846,
      "Cup": 1847,
      "marri": 1848,
      "things": 1849,
      "design": 1850,
      "mp": 1851,
      "utes": 1852,
      "flo": 1853,
      "gether": 1854,
      "ior": 1855,
      "Cour": 1856,
      "iously": 1857,
      "sed": 1858,
      "heart": 1859,
      "fur": 1860,
      "small": 1861,
      "BC": 1862,
      "main": 1863,
      "fall": 1864,
      "Mrs": 1865,
      "spokesman": 1866,
      "row": 1867,
      "ention": 1868,
      "Ac": 1869,
      "looking": 1870,
      "least": 1871,
      "announ": 1872,
      "cast": 1873,
      "artment": 1874,
      "final": 1875,
      "lost": 1876,
      "better": 1877,
      "Scroll": 1878,
      "human": 1879,
      "ator": 1880,
      "likely": 1881,
      "major": 1882,
      "party": 1883,
      "crit": 1884,
      "stit": 1885,
      "rid": 1886,
      "released": 1887,
      "40": 1888,
      "stru": 1889,
      "key": 1890,
      "dep": 1891,
      "prote": 1892,
      "success": 1893,
      "Ho": 1894,
      "House": 1895,
      "ators": 1896,
      "plain": 1897,
      "ani": 1898,
      "import": 1899,
      "comes": 1900,
      "proper": 1901,
      "hold": 1902,
      "appear": 1903,
      "dro": 1904,
      "live": 1905,
      "together": 1906,
      "held": 1907,
      "ales": 1908,
      "consid": 1909,
      "full": 1910,
      "clud": 1911,
      "conom": 1912,
      "tar": 1913,
      "conv": 1914,
      "ica": 1915,
      "food": 1916,
      "short": 1917,
      "hot": 1918,
      "tax": 1919,
      "dog": 1920,
      "ances": 1921,
      "trying": 1922,
      "ands": 1923,
      "graph": 1924,
      "name": 1925,
      "step": 1926,
      "continu": 1927,
      "pen": 1928,
      "lor": 1929,
      "watch": 1930,
      "Britain": 1931,
      "cher": 1932,
      "claimed": 1933,
      "However": 1934,
      "Afr": 1935,
      "level": 1936,
      "players": 1937,
      "eral": 1938,
      "gn": 1939,
      "States": 1940,
      "erg": 1941,
      "stay": 1942,
      "Scot": 1943,
      "ik": 1944,
      "custo": 1945,
      "must": 1946,
      "force": 1947,
      "ria": 1948,
      "Lo": 1949,
      "cked": 1950,
      "100": 1951,
      "class": 1952,
      "ising": 1953,
      "cept": 1954,
      "partic": 1955,
      "ington": 1956,
      "My": 1957,
      "Par": 1958,
      "pain": 1959,
      "ept": 1960,
      "record": 1961,
      "media": 1962,
      "vir": 1963,
      "Pro": 1964,
      "January": 1965,
      "field": 1966,
      "tech": 1967,
      "cy": 1968,
      "ution": 1969,
      "shows": 1970,
      "Mail": 1971,
      "Am": 1972,
      "2011": 1973,
      "once": 1974,
      "based": 1975,
      "wrote": 1976,
      "Gu": 1977,
      "enter": 1978,
      "pool": 1979,
      "experi": 1980,
      "ided": 1981,
      "ians": 1982,
      "qual": 1983,
      "Court": 1984,
      "grow": 1985,
      "vot": 1986,
      "program": 1987,
      "chester": 1988,
      "ential": 1989,
      "among": 1990,
      "elt": 1991,
      "building": 1992,
      "expected": 1993,
      "What": 1994,
      "University": 1995,
      "officers": 1996,
      "doing": 1997,
      "ester": 1998,
      "ane": 1999,
      "began": 2000,
      "arrested": 2001,
      "ize": 2002,
      "anger": 2003,
      "posed": 2004,
      "gin": 2005,
      "Dep": 2006,
      "himself": 2007,
      "suggest": 2008,
      "morning": 2009,
      "moved": 2010,
      "staff": 2011,
      "priv": 2012,
      "arm": 2013,
      "Oc": 2014,
      "rul": 2015,
      "earlier": 2016,
      "position": 2017,
      "decision": 2018,
      "information": 2019,
      "econom": 2020,
      "claims": 2021,
      "seven": 2022,
      "Face": 2023,
      "hor": 2024,
      "aut": 2025,
      "why": 2026,
      "enough": 2027,
      "dem": 2028,
      "minutes": 2029,
      "sty": 2030,
      "urch": 2031,
      "acy": 2032,
      "investigation": 2033,
      "Fe": 2034,
      "strong": 2035,
      "esterday": 2036,
      "possible": 2037,
      "interest": 2038,
      "aily": 2039,
      "revealed": 2040,
      "wards": 2041,
      "large": 2042,
      "employ": 2043,
      "done": 2044,
      "Geor": 2045,
      "Sept": 2046,
      "black": 2047,
      "bir": 2048,
      "became": 2049,
      "kid": 2050,
      "ense": 2051,
      "risk": 2052,
      "rain": 2053,
      "goal": 2054,
      "messa": 2055,
      "authorities": 2056,
      "conf": 2057,
      "’.": 2058,
      "24": 2059,
      "commit": 2060,
      "bot": 2061,
      "Facebook": 2062,
      "laun": 2063,
      "pot": 2064,
      "getting": 2065,
      "nal": 2066,
      "others": 2067,
      "count": 2068,
      "supp": 2069,
      "evidence": 2070,
      "social": 2071,
      "Me": 2072,
      "cil": 2073,
      "atic": 2074,
      "hael": 2075,
      "football": 2076,
      "September": 2077,
      "hope": 2078,
      "travel": 2079,
      "ugg": 2080,
      "terror": 2081,
      "Fo": 2082,
      "hom": 2083,
      "ences": 2084,
      "US": 2085,
      "National": 2086,
      "Republic": 2087,
      "ana": 2088,
      "sw": 2089,
      "requ": 2090,
      "third": 2091,
      "Manchester": 2092,
      "vember": 2093,
      "special": 2094,
      "site": 2095,
      "ecut": 2096,
      "Dece": 2097,
      "November": 2098,
      "compet": 2099,
      "mission": 2100,
      "admit": 2101,
      "lives": 2102,
      "shoot": 2103,
      "December": 2104,
      "almost": 2105,
      "Aug": 2106,
      "stop": 2107,
      "sco": 2108,
      "aul": 2109,
      "ben": 2110,
      "doctor": 2111,
      "control": 2112,
      "service": 2113,
      "ried": 2114,
      "ring": 2115,
      "fell": 2116,
      "tober": 2117,
      "match": 2118,
      "played": 2119,
      "shop": 2120,
      "fully": 2121,
      "vices": 2122,
      "appeared": 2123,
      "October": 2124,
      "Ser": 2125,
      "interview": 2126,
      "Michael": 2127,
      "March": 2128,
      "ai": 2129,
      "wind": 2130,
      "mocr": 2131,
      "Lu": 2132,
      "effect": 2133,
      "ler": 2134,
      "assa": 2135,
      "board": 2136,
      "happened": 2137,
      "Po": 2138,
      "often": 2139,
      "August": 2140,
      "aper": 2141,
      "Ed": 2142,
      "due": 2143,
      "important": 2144,
      "ology": 2145,
      "iver": 2146,
      "dest": 2147,
      "ping": 2148,
      "William": 2149,
      "fut": 2150,
      "host": 2151,
      "June": 2152,
      "60": 2153,
      "reed": 2154,
      "political": 2155,
      "wood": 2156,
      "hop": 2157,
      "Cor": 2158,
      "tal": 2159,
      "bul": 2160,
      "grand": 2161,
      "mus": 2162,
      "techn": 2163,
      "anim": 2164,
      "Just": 2165,
      "brother": 2166,
      "fig": 2167,
      "ctions": 2168,
      "van": 2169,
      "polic": 2170,
      "eight": 2171,
      "trial": 2172,
      "lear": 2173,
      "protest": 2174,
      "22": 2175,
      "yet": 2176,
      "shire": 2177,
      "21": 2178,
      "loc": 2179,
      "ament": 2180,
      "tra": 2181,
      "stead": 2182,
      "slam": 2183,
      "Park": 2184,
      "Pal": 2185,
      "War": 2186,
      "international": 2187,
      "office": 2188,
      "nation": 2189,
      "bad": 2190,
      "ken": 2191,
      "ering": 2192,
      "tried": 2193,
      "ium": 2194,
      "With": 2195,
      "istan": 2196,
      "inside": 2197,
      "webs": 2198,
      "further": 2199,
      "spot": 2200,
      "spent": 2201,
      "rew": 2202,
      "flight": 2203,
      "execut": 2204,
      "turned": 2205,
      "2010": 2206,
      "aving": 2207,
      "ston": 2208,
      "Char": 2209,
      "accused": 2210,
      "term": 2211,
      "involved": 2212,
      "market": 2213,
      "teen": 2214,
      "fans": 2215,
      "dle": 2216,
      "question": 2217,
      "draw": 2218,
      "July": 2219,
      "includ": 2220,
      "future": 2221,
      "tries": 2222,
      "Some": 2223,
      "mean": 2224,
      "crim": 2225,
      "adv": 2226,
      "aster": 2227,
      "described": 2228,
      "State": 2229,
      "ribut": 2230,
      "charges": 2231,
      "confir": 2232,
      "low": 2233,
      "Apr": 2234,
      "fed": 2235,
      "bring": 2236,
      "While": 2237,
      "charged": 2238,
      "ening": 2239,
      "online": 2240,
      "yesterday": 2241,
      "born": 2242,
      "received": 2243,
      "April": 2244,
      "leave": 2245,
      "aly": 2246,
      "Indi": 2247,
      "eas": 2248,
      "relation": 2249,
      "uc": 2250,
      "director": 2251,
      "baby": 2252,
      "pair": 2253,
      "China": 2254,
      "believed": 2255,
      "ails": 2256,
      "yal": 2257,
      "prose": 2258,
      "activ": 2259,
      "scre": 2260,
      "film": 2261,
      "living": 2262,
      "lish": 2263,
      "thern": 2264,
      "gave": 2265,
      "uel": 2266,
      "jour": 2267,
      "certain": 2268,
      "ban": 2269,
      "process": 2270,
      "Can": 2271,
      "Or": 2272,
      "sim": 2273,
      "kind": 2274,
      "community": 2275,
      "miles": 2276,
      "super": 2277,
      "story": 2278,
      "doesn": 2279,
      "someone": 2280,
      "dou": 2281,
      "scene": 2282,
      "igr": 2283,
      "comment": 2284,
      "Ex": 2285,
      "respons": 2286,
      "within": 2287,
      "spec": 2288,
      "complete": 2289,
      "jail": 2290,
      "manager": 2291,
      "chall": 2292,
      "trad": 2293,
      "bank": 2294,
      "lex": 2295,
      "Ira": 2296,
      "target": 2297,
      "tro": 2298,
      "Jack": 2299,
      "diffic": 2300,
      "forward": 2301,
      "James": 2302,
      "vision": 2303,
      "famil": 2304,
      "mag": 2305,
      "Iraq": 2306,
      "23": 2307,
      "officer": 2308,
      "neigh": 2309,
      "omb": 2310,
      "fit": 2311,
      "torney": 2312,
      "America": 2313,
      "witter": 2314,
      "lying": 2315,
      "icted": 2316,
      "itions": 2317,
      "course": 2318,
      "tee": 2319,
      "cell": 2320,
      "squ": 2321,
      "dress": 2322,
      "Mart": 2323,
      "ilar": 2324,
      "abo": 2325,
      "issue": 2326,
      "leaders": 2327,
      "despite": 2328,
      "News": 2329,
      "ivil": 2330,
      "sour": 2331,
      "ns": 2332,
      "icle": 2333,
      "ries": 2334,
      "Ham": 2335,
      "tre": 2336,
      "batt": 2337,
      "Department": 2338,
      "2014": 2339,
      "wide": 2340,
      "oud": 2341,
      "White": 2342,
      "billion": 2343,
      "birth": 2344,
      "Ang": 2345,
      "history": 2346,
      "anything": 2347,
      "nia": 2348,
      "Twitter": 2349,
      "ino": 2350,
      "idge": 2351,
      "Ab": 2352,
      "Wash": 2353,
      "wasn": 2354,
      "worth": 2355,
      "Don": 2356,
      "Hol": 2357,
      "Res": 2358,
      "rac": 2359,
      "Sen": 2360,
      "imm": 2361,
      "docu": 2362,
      "deb": 2363,
      "Sm": 2364,
      "Minister": 2365,
      "writ": 2366,
      "ico": 2367,
      "rad": 2368,
      "pick": 2369,
      "East": 2370,
      "County": 2371,
      "ached": 2372,
      "wed": 2373,
      "moment": 2374,
      "itive": 2375,
      "ensive": 2376,
      "chief": 2377,
      "playing": 2378,
      "worked": 2379,
      "leader": 2380,
      "Febr": 2381,
      "February": 2382,
      "reports": 2383,
      "training": 2384,
      "ple": 2385,
      "medi": 2386,
      "bi": 2387,
      "Washington": 2388,
      "provid": 2389,
      "ability": 2390,
      "198": 2391,
      "aur": 2392,
      "ung": 2393,
      "reme": 2394,
      "relationship": 2395,
      "dist": 2396,
      "San": 2397,
      "ahead": 2398,
      "Des": 2399,
      "quick": 2400,
      "player": 2401,
      "rench": 2402,
      "website": 2403,
      "Air": 2404,
      "named": 2405,
      "tour": 2406,
      "white": 2407,
      "bert": 2408,
      "carry": 2409,
      "cretary": 2410,
      "Je": 2411,
      "ults": 2412,
      "selves": 2413,
      "decl": 2414,
      "Paul": 2415,
      "ices": 2416,
      "Cali": 2417,
      "According": 2418,
      "forced": 2419,
      "Ear": 2420,
      "nothing": 2421,
      "drink": 2422,
      "Sup": 2423,
      "Califor": 2424,
      "spir": 2425,
      "rights": 2426,
      "ides": 2427,
      "serv": 2428,
      "ues": 2429,
      "series": 2430,
      "mas": 2431,
      "capt": 2432,
      "El": 2433,
      "paid": 2434,
      "model": 2435,
      "difficult": 2436,
      "veh": 2437,
      "rian": 2438,
      "role": 2439,
      "gress": 2440,
      "uation": 2441,
      "ron": 2442,
      "Rom": 2443,
      "admitted": 2444,
      "popular": 2445,
      "continue": 2446,
      "Sam": 2447,
      "simp": 2448,
      "summer": 2449,
      "park": 2450,
      "hig": 2451,
      "space": 2452,
      "Chel": 2453,
      "Kore": 2454,
      "har": 2455,
      "27": 2456,
      "ination": 2457,
      "felt": 2458,
      "wrong": 2459,
      "soon": 2460,
      "**": 2461,
      "suit": 2462,
      "hip": 2463,
      "camer": 2464,
      "fav": 2465,
      "contribut": 2466,
      "California": 2467,
      "ze": 2468,
      "explo": 2469,
      "personal": 2470,
      "Pl": 2471,
      "showed": 2472,
      "whose": 2473,
      "announced": 2474,
      "looked": 2475,
      "acher": 2476,
      "Do": 2477,
      "guil": 2478,
      "mass": 2479,
      "ousands": 2480,
      "enjo": 2481,
      "aft": 2482,
      "bill": 2483,
      "26": 2484,
      "Daily": 2485,
      "tit": 2486,
      "countries": 2487,
      "medical": 2488,
      "huge": 2489,
      "els": 2490,
      "Australia": 2491,
      "understand": 2492,
      "European": 2493,
      "ican": 2494,
      "Last": 2495,
      "mis": 2496,
      "28": 2497,
      "',": 2498,
      "problem": 2499,
      "dies": 2500,
      "weight": 2501,
      "gen": 2502,
      "blood": 2503,
      "fund": 2504,
      "contact": 2505,
      "Gre": 2506,
      "study": 2507,
      "knew": 2508,
      "French": 2509,
      "happy": 2510,
      "defend": 2511,
      "dy": 2512,
      "susp": 2513,
      "treatment": 2514,
      "nearly": 2515,
      "ners": 2516,
      "beat": 2517,
      "students": 2518,
      "Islam": 2519,
      "Democr": 2520,
      "condition": 2521,
      "Now": 2522,
      "perfor": 2523,
      "ging": 2524,
      "rael": 2525,
      "decided": 2526,
      "tw": 2527,
      "bour": 2528,
      "Mark": 2529,
      "mal": 2530,
      "recently": 2531,
      "ata": 2532,
      "depend": 2533,
      "Israel": 2534,
      "Em": 2535,
      "fear": 2536,
      "Mil": 2537,
      "victims": 2538,
      "2009": 2539,
      "caused": 2540,
      "ither": 2541,
      "makes": 2542,
      "pur": 2543,
      "serious": 2544,
      "member": 2545,
      "potential": 2546,
      "Afgh": 2547,
      "Liver": 2548,
      "centre": 2549,
      "picture": 2550,
      "avy": 2551,
      "forces": 2552,
      "cancer": 2553,
      "profess": 2554,
      "70": 2555,
      "plans": 2556,
      "ature": 2557,
      "civil": 2558,
      "surv": 2559,
      "track": 2560,
      "ampion": 2561,
      "similar": 2562,
      "problems": 2563,
      "expect": 2564,
      "plic": 2565,
      "door": 2566,
      "ference": 2567,
      "aver": 2568,
      ").": 2569,
      "judge": 2570,
      "immedi": 2571,
      "ru": 2572,
      "flu": 2573,
      "Lab": 2574,
      "rock": 2575,
      "stu": 2576,
      "means": 2577,
      "orig": 2578,
      "Liverpool": 2579,
      "product": 2580,
      "atter": 2581,
      "brought": 2582,
      "Mad": 2583,
      "sn": 2584,
      "anned": 2585,
      "particular": 2586,
      "Camer": 2587,
      "result": 2588,
      "Ad": 2589,
      "Chelsea": 2590,
      "running": 2591,
      "benef": 2592,
      "pet": 2593,
      "King": 2594,
      "ulation": 2595,
      "hair": 2596,
      "cases": 2597,
      "race": 2598,
      "coll": 2599,
      "enced": 2600,
      "sexual": 2601,
      "strugg": 2602,
      "Spe": 2603,
      "weet": 2604,
      "Afghan": 2605,
      "erry": 2606,
      "private": 2607,
      "init": 2608,
      "girls": 2609,
      "access": 2610,
      "lies": 2611,
      "guilty": 2612,
      "bas": 2613,
      "500": 2614,
      "career": 2615,
      "gas": 2616,
      "Que": 2617,
      "box": 2618,
      "George": 2619,
      "safe": 2620,
      "sle": 2621,
      "currently": 2622,
      "visit": 2623,
      "chance": 2624,
      "mers": 2625,
      "everything": 2626,
      "na": 2627,
      "Ben": 2628,
      "Rich": 2629,
      "plane": 2630,
      "Te": 2631,
      "allegedly": 2632,
      "divid": 2633,
      "families": 2634,
      "Chris": 2635,
      "Angel": 2636,
      "compan": 2637,
      "ona": 2638,
      "pie": 2639,
      "lin": 2640,
      "tele": 2641,
      "works": 2642,
      "leading": 2643,
      "ministr": 2644,
      "Mus": 2645,
      "games": 2646,
      "ker": 2647,
      "Med": 2648,
      "violence": 2649,
      "posted": 2650,
      "Prem": 2651,
      "latest": 2652,
      "Alex": 2653,
      "quar": 2654,
      "ients": 2655,
      "Phil": 2656,
      "cel": 2657,
      "experience": 2658,
      "impro": 2659,
      "gone": 2660,
      "Mid": 2661,
      "chair": 2662,
      "29": 2663,
      "uries": 2664,
      "Iran": 2665,
      "allowed": 2666,
      "lie": 2667,
      "weekend": 2668,
      "cli": 2669,
      "ades": 2670,
      "prep": 2671,
      "anyone": 2672,
      "charge": 2673,
      "king": 2674,
      "failed": 2675,
      "Christmas": 2676,
      "thousands": 2677,
      "remains": 2678,
      "suffered": 2679,
      "needed": 2680,
      "saf": 2681,
      "accident": 2682,
      "weap": 2683,
      "hood": 2684,
      "France": 2685,
      "themselves": 2686,
      "undred": 2687,
      "uses": 2688,
      "meas": 2689,
      "apped": 2690,
      "link": 2691,
      "ida": 2692,
      "glo": 2693,
      "danger": 2694,
      "anti": 2695,
      "include": 2696,
      "lawy": 2697,
      "ald": 2698,
      "FA": 2699,
      "cir": 2700,
      "2008": 2701,
      "hands": 2702,
      "style": 2703,
      "property": 2704,
      "stor": 2705,
      "protect": 2706,
      "Syria": 2707,
      "sey": 2708,
      "hearing": 2709,
      "avail": 2710,
      "ops": 2711,
      "attacks": 2712,
      "missing": 2713,
      "gent": 2714,
      "federal": 2715,
      "nine": 2716,
      "opt": 2717,
      "above": 2718,
      "pack": 2719,
      "conne": 2720,
      "Not": 2721,
      "rather": 2722,
      "respond": 2723,
      "speak": 2724,
      "Wil": 2725,
      "station": 2726,
      "publ": 2727,
      "discovered": 2728,
      "actually": 2729,
      "cross": 2730,
      "soldi": 2731,
      "develop": 2732,
      "safety": 2733,
      "ray": 2734,
      "reason": 2735,
      "ounds": 2736,
      "Rob": 2737,
      "App": 2738,
      "placed": 2739,
      "workers": 2740,
      "married": 2741,
      "var": 2742,
      "range": 2743,
      "represent": 2744,
      "argu": 2745,
      "wel": 2746,
      "account": 2747,
      "atives": 2748,
      "cru": 2749,
      "Cameron": 2750,
      "MP": 2751,
      "equ": 2752,
      "bing": 2753,
      "hy": 2754,
      "research": 2755,
      "Premier": 2756,
      "Day": 2757,
      "idea": 2758,
      "fast": 2759,
      "cand": 2760,
      "wat": 2761,
      "indust": 2762,
      "attemp": 2763,
      "leaving": 2764,
      "seek": 2765,
      "sat": 2766,
      "arrived": 2767,
      "percent": 2768,
      "suspect": 2769,
      "loss": 2770,
      "Sha": 2771,
      "Sch": 2772,
      "oid": 2773,
      "crime": 2774,
      "asing": 2775,
      "meeting": 2776,
      "witness": 2777,
      "respon": 2778,
      "pan": 2779,
      "check": 2780,
      "audi": 2781,
      "message": 2782,
      "za": 2783,
      "inv": 2784,
      "Mex": 2785,
      "lect": 2786,
      "comments": 2787,
      "EO": 2788,
      "helped": 2789,
      "Mur": 2790,
      "everyone": 2791,
      "kept": 2792,
      "ount": 2793,
      "Smith": 2794,
      "looks": 2795,
      "critic": 2796,
      "ks": 2797,
      "shooting": 2798,
      "situation": 2799,
      "pract": 2800,
      "Ken": 2801,
      "itional": 2802,
      "reach": 2803,
      "bol": 2804,
      "points": 2805,
      "patients": 2806,
      "couldn": 2807,
      "surpr": 2808,
      "Pat": 2809,
      "BBC": 2810,
      "ots": 2811,
      "available": 2812,
      "pun": 2813,
      "express": 2814,
      "killing": 2815,
      "hur": 2816,
      "Brown": 2817,
      "project": 2818,
      "fem": 2819,
      "firm": 2820,
      "ease": 2821,
      "music": 2822,
      "Du": 2823,
      "election": 2824,
      "ky": 2825,
      "Africa": 2826,
      "bag": 2827,
      "Russia": 2828,
      "lied": 2829,
      "unity": 2830,
      "Stre": 2831,
      "These": 2832,
      "Flor": 2833,
      "Two": 2834,
      "whole": 2835,
      "ibility": 2836,
      "mind": 2837,
      "cit": 2838,
      "discus": 2839,
      "ery": 2840,
      "else": 2841,
      "wall": 2842,
      "confirmed": 2843,
      "attorney": 2844,
      "terri": 2845,
      "Su": 2846,
      "wearing": 2847,
      "crow": 2848,
      "driving": 2849,
      "rup": 2850,
      "issues": 2851,
      "rap": 2852,
      "page": 2853,
      "assist": 2854,
      "Gl": 2855,
      "image": 2856,
      "inst": 2857,
      "peri": 2858,
      "condu": 2859,
      "ij": 2860,
      "address": 2861,
      "ump": 2862,
      "termin": 2863,
      "areas": 2864,
      "release": 2865,
      "orter": 2866,
      "sell": 2867,
      "student": 2868,
      "beaut": 2869,
      "Thom": 2870,
      "sear": 2871,
      "Mor": 2872,
      "sun": 2873,
      "famous": 2874,
      "Cent": 2875,
      "capital": 2876,
      "Wo": 2877,
      "Hu": 2878,
      "needs": 2879,
      "phys": 2880,
      "ese": 2881,
      "Red": 2882,
      "groups": 2883,
      "driver": 2884,
      "lymp": 2885,
      "giving": 2886,
      "buy": 2887,
      "matter": 2888,
      "services": 2889,
      "ov": 2890,
      "Royal": 2891,
      "aging": 2892,
      "wants": 2893,
      "strict": 2894,
      "45": 2895,
      "stage": 2896,
      "begin": 2897,
      "policy": 2898,
      "Prime": 2899,
      "abuse": 2900,
      "die": 2901,
      "Lou": 2902,
      "sister": 2903,
      "pul": 2904,
      "quite": 2905,
      "Au": 2906,
      "single": 2907,
      "educ": 2908,
      "Russian": 2909,
      "non": 2910,
      "Arsen": 2911,
      "Bro": 2912,
      "holiday": 2913,
      "Olymp": 2914,
      "International": 2915,
      "cannot": 2916,
      "Uk": 2917,
      "Americans": 2918,
      "ded": 2919,
      "opport": 2920,
      "depart": 2921,
      "craft": 2922,
      "crash": 2923,
      "aves": 2924,
      "longer": 2925,
      "Ke": 2926,
      "calls": 2927,
      "ID": 2928,
      "senior": 2929,
      "returned": 2930,
      "Jer": 2931,
      "images": 2932,
      "smo": 2933,
      "Mal": 2934,
      "empt": 2935,
      "deep": 2936,
      "elect": 2937,
      "emerg": 2938,
      "Braz": 2939,
      "hotel": 2940,
      "ancial": 2941,
      "mob": 2942,
      "apan": 2943,
      "High": 2944,
      "provide": 2945,
      "street": 2946,
      "period": 2947,
      "English": 2948,
      "ify": 2949,
      "pressure": 2950,
      "injuries": 2951,
      "yed": 2952,
      "ady": 2953,
      "teacher": 2954,
      "individ": 2955,
      "Japan": 2956,
      "cogn": 2957,
      "Florida": 2958,
      "charac": 2959,
      "itor": 2960,
      "35": 2961,
      "Hill": 2962,
      "however": 2963,
      "People": 2964,
      "operation": 2965,
      "hundred": 2966,
      "Hospital": 2967,
      "separ": 2968,
      "School": 2969,
      "yn": 2970,
      "Bel": 2971,
      "store": 2972,
      "roll": 2973,
      "lif": 2974,
      "Vic": 2975,
      "omin": 2976,
      "Labour": 2977,
      "signific": 2978,
      "Brazil": 2979,
      "answ": 2980,
      "bomb": 2981,
      "Prince": 2982,
      "vast": 2983,
      "Off": 2984,
      "Martin": 2985,
      "ival": 2986,
      "fair": 2987,
      "mental": 2988,
      "brain": 2989,
      "continued": 2990,
      "ashed": 2991,
      "created": 2992,
      "figh": 2993,
      "winning": 2994,
      "eye": 2995,
      "vote": 2996,
      "sal": 2997,
      "Street": 2998,
      "minister": 2999,
      "pret": 3000,
      "arent": 3001,
      "comb": 3002,
      "inc": 3003,
      "Pak": 3004,
      "More": 3005,
      "challen": 3006,
      "beha": 3007,
      "omet": 3008,
      "takes": 3009,
      "complain": 3010,
      "drugs": 3011,
      "minute": 3012,
      "join": 3013,
      "Secretary": 3014,
      "injured": 3015,
      "sold": 3016,
      "wear": 3017,
      "lands": 3018,
      "doctors": 3019,
      "carried": 3020,
      "feet": 3021,
      "ipp": 3022,
      "pictures": 3023,
      "Per": 3024,
      "pose": 3025,
      "reas": 3026,
      "west": 3027,
      "fat": 3028,
      "refer": 3029,
      "administr": 3030,
      "criminal": 3031,
      "letter": 3032,
      "ert": 3033,
      "coach": 3034,
      "although": 3035,
      "surger": 3036,
      "counts": 3037,
      "ows": 3038,
      "fighting": 3039,
      "extreme": 3040,
      "Che": 3041,
      "prevent": 3042,
      "trip": 3043,
      "cult": 3044,
      "ght": 3045,
      "total": 3046,
      "kick": 3047,
      "Peter": 3048,
      "cars": 3049,
      "pil": 3050,
      "direct": 3051,
      "built": 3052,
      "biggest": 3053,
      "caught": 3054,
      "region": 3055,
      "mist": 3056,
      "photograph": 3057,
      "Tom": 3058,
      "included": 3059,
      "owner": 3060,
      "demand": 3061,
      "performan": 3062,
      "respect": 3063,
      "actions": 3064,
      "common": 3065,
      "impact": 3066,
      "victory": 3067,
      "80": 3068,
      "Os": 3069,
      "loved": 3070,
      "quickly": 3071,
      "north": 3072,
      "warned": 3073,
      "agency": 3074,
      "ny": 3075,
      "data": 3076,
      "foreign": 3077,
      "states": 3078,
      "fill": 3079,
      "regular": 3080,
      "plained": 3081,
      "table": 3082,
      "Black": 3083,
      "repe": 3084,
      "extra": 3085,
      "average": 3086,
      "din": 3087,
      "speed": 3088,
      "clim": 3089,
      "Scott": 3090,
      "elder": 3091,
      "journal": 3092,
      "estim": 3093,
      "offer": 3094,
      "east": 3095,
      "Cam": 3096,
      "emer": 3097,
      "Tex": 3098,
      "ashion": 3099,
      "general": 3100,
      "repor": 3101,
      "spect": 3102,
      "immigr": 3103,
      "sem": 3104,
      "south": 3105,
      "bid": 3106,
      "entire": 3107,
      "ays": 3108,
      "bled": 3109,
      "surve": 3110,
      "contributed": 3111,
      "changed": 3112,
      "Part": 3113,
      "exam": 3114,
      "ises": 3115,
      "ta": 3116,
      "vill": 3117,
      "iant": 3118,
      "chers": 3119,
      "weather": 3120,
      "date": 3121,
      "homes": 3122,
      "Tur": 3123,
      "Val": 3124,
      "injury": 3125,
      "redu": 3126,
      "ech": 3127,
      "source": 3128,
      "significant": 3129,
      "sil": 3130,
      "ushed": 3131,
      "boss": 3132,
      "words": 3133,
      "camera": 3134,
      "ization": 3135,
      "inese": 3136,
      "lines": 3137,
      "engers": 3138,
      "previous": 3139,
      "tur": 3140,
      "instead": 3141,
      "ently": 3142,
      "mach": 3143,
      "Associ": 3144,
      "behavi": 3145,
      "price": 3146,
      "request": 3147,
      "counter": 3148,
      "probab": 3149,
      "disease": 3150,
      "immediately": 3151,
      "launched": 3152,
      "Sir": 3153,
      "ends": 3154,
      "scient": 3155,
      "Clin": 3156,
      "Germany": 3157,
      "executive": 3158,
      "sion": 3159,
      "initial": 3160,
      "financial": 3161,
      "31": 3162,
      "sentence": 3163,
      "pm": 3164,
      "battle": 3165,
      "ille": 3166,
      "NA": 3167,
      "Despite": 3168,
      "create": 3169,
      "lived": 3170,
      "cially": 3171,
      "Muslim": 3172,
      "build": 3173,
      "kids": 3174,
      "Bay": 3175,
      "hon": 3176,
      "ample": 3177,
      "ession": 3178,
      "recogn": 3179,
      "share": 3180,
      "2007": 3181,
      "goals": 3182,
      "mill": 3183,
      "marriage": 3184,
      "users": 3185,
      "ander": 3186,
      "moving": 3187,
      "Cong": 3188,
      "response": 3189,
      "nu": 3190,
      "mot": 3191,
      "insist": 3192,
      "tru": 3193,
      "occur": 3194,
      "isn": 3195,
      "Chinese": 3196,
      "recover": 3197,
      "Australian": 3198,
      "tou": 3199,
      "Arsenal": 3200,
      "attention": 3201,
      "berg": 3202,
      "peace": 3203,
      "previously": 3204,
      "German": 3205,
      "demon": 3206,
      "bridge": 3207,
      "Texas": 3208,
      "mult": 3209,
      "assault": 3210,
      "surgery": 3211,
      "Apple": 3212,
      "Government": 3213,
      "fected": 3214,
      "parts": 3215,
      "HS": 3216,
      "pred": 3217,
      "vehicle": 3218,
      "Richard": 3219,
      "crew": 3220,
      "probably": 3221,
      "ties": 3222,
      "nother": 3223,
      "appearance": 3224,
      "pit": 3225,
      "identified": 3226,
      "fle": 3227,
      "athe": 3228,
      "review": 3229,
      "ara": 3230,
      "Health": 3231,
      "joined": 3232,
      "appeal": 3233,
      "inary": 3234,
      "ishing": 3235,
      "ampions": 3236,
      "airport": 3237,
      "onto": 3238,
      "yan": 3239,
      "rout": 3240,
      "pregn": 3241,
      "finding": 3242,
      "Another": 3243,
      "ively": 3244,
      "female": 3245,
      "contract": 3246,
      "floor": 3247,
      "cat": 3248,
      "broad": 3249,
      "ada": 3250,
      "passed": 3251,
      "ream": 3252,
      "rate": 3253,
      "viron": 3254,
      "ably": 3255,
      "accept": 3256,
      "vert": 3257,
      "Afghanistan": 3258,
      "technology": 3259,
      "spoke": 3260,
      "Queen": 3261,
      "companies": 3262,
      "cup": 3263,
      "standing": 3264,
      "raised": 3265,
      "Republican": 3266,
      "emy": 3267,
      "tract": 3268,
      "followed": 3269,
      "refused": 3270,
      "conditions": 3271,
      "either": 3272,
      "opened": 3273,
      "Ber": 3274,
      "shock": 3275,
      "conference": 3276,
      "Every": 3277,
      "ked": 3278,
      "prosecu": 3279,
      "size": 3280,
      "shown": 3281,
      "goes": 3282,
      "consider": 3283,
      "residents": 3284,
      "Williams": 3285,
      "denied": 3286,
      "SA": 3287,
      "believes": 3288,
      "ado": 3289,
      "penal": 3290,
      "damage": 3291,
      "ique": 3292,
      "90": 3293,
      "events": 3294,
      "hous": 3295,
      "gold": 3296,
      "grad": 3297,
      "Congress": 3298,
      "employe": 3299,
      "ogle": 3300,
      "towards": 3301,
      "happen": 3302,
      "growing": 3303,
      "Los": 3304,
      "seems": 3305,
      "espe": 3306,
      "details": 3307,
      "Mer": 3308,
      "newsp": 3309,
      "candid": 3310,
      "published": 3311,
      "ti": 3312,
      "bes": 3313,
      "rovers": 3314,
      "especially": 3315,
      "Sal": 3316,
      "Mill": 3317,
      "sof": 3318,
      "questions": 3319,
      "Scotland": 3320,
      "brand": 3321,
      "actor": 3322,
      "afford": 3323,
      "cris": 3324,
      "tom": 3325,
      "Ukrain": 3326,
      "Cap": 3327,
      "photos": 3328,
      "Jud": 3329,
      "Council": 3330,
      "herself": 3331,
      "icide": 3332,
      "gar": 3333,
      "partner": 3334,
      "remember": 3335,
      "noon": 3336,
      "economic": 3337,
      "sleep": 3338,
      "focus": 3339,
      "controvers": 3340,
      "African": 3341,
      "finally": 3342,
      "block": 3343,
      "compu": 3344,
      "agreed": 3345,
      "simply": 3346,
      "served": 3347,
      "burn": 3348,
      "Qu": 3349,
      "Offic": 3350,
      "tem": 3351,
      "ural": 3352,
      "scr": 3353,
      "gets": 3354,
      "industry": 3355,
      "clean": 3356,
      "perfect": 3357,
      "restaur": 3358,
      "Google": 3359,
      "avoid": 3360,
      "rang": 3361,
      "erson": 3362,
      "load": 3363,
      "results": 3364,
      "aud": 3365,
      "adding": 3366,
      "apparent": 3367,
      "pointed": 3368,
      "aware": 3369,
      "Ma": 3370,
      "stone": 3371,
      "cep": 3372,
      "alone": 3373,
      "amount": 3374,
      "fan": 3375,
      "sou": 3376,
      "poor": 3377,
      "impress": 3378,
      "lack": 3379,
      "Port": 3380,
      "rare": 3381,
      "border": 3382,
      "itors": 3383,
      "convicted": 3384,
      "plant": 3385,
      "Office": 3386,
      "wedding": 3387,
      "demonstr": 3388,
      "deliver": 3389,
      "skin": 3390,
      "contain": 3391,
      "iet": 3392,
      "hear": 3393,
      "spending": 3394,
      "changes": 3395,
      "Jackson": 3396,
      "appears": 3397,
      "hundreds": 3398,
      "rupt": 3399,
      "missed": 3400,
      "indic": 3401,
      "natur": 3402,
      "customers": 3403,
      "title": 3404,
      "opening": 3405,
      "Johnson": 3406,
      "card": 3407,
      "oil": 3408,
      "ect": 3409,
      "offered": 3410,
      "tweet": 3411,
      "owned": 3412,
      "emergency": 3413,
      "energy": 3414,
      "encour": 3415,
      "Many": 3416,
      "hest": 3417,
      "ancy": 3418,
      "Rod": 3419,
      "passengers": 3420,
      "troops": 3421,
      "astic": 3422,
      "closed": 3423,
      "Clinton": 3424,
      "forts": 3425,
      "lose": 3426,
      "ceed": 3427,
      "ike": 3428,
      "vent": 3429,
      "increase": 3430,
      "Our": 3431,
      "emot": 3432,
      "eyes": 3433,
      "champion": 3434,
      "surround": 3435,
      "advis": 3436,
      "allegations": 3437,
      "base": 3438,
      "tran": 3439,
      "drive": 3440,
      "snow": 3441,
      "ories": 3442,
      "traff": 3443,
      "cing": 3444,
      "Center": 3445,
      "II": 3446,
      "lu": 3447,
      "Korea": 3448,
      "independ": 3449,
      "ples": 3450,
      "touch": 3451,
      "sequ": 3452,
      "akes": 3453,
      "ender": 3454,
      "exc": 3455,
      "figures": 3456,
      "jury": 3457,
      "iving": 3458,
      "32": 3459,
      "Sto": 3460,
      "defin": 3461,
      "launch": 3462,
      "engine": 3463,
      "calling": 3464,
      "Jones": 3465,
      "boys": 3466,
      "stopped": 3467,
      "Of": 3468,
      "Ron": 3469,
      "Even": 3470,
      "mater": 3471,
      "document": 3472,
      "stra": 3473,
      "dangerous": 3474,
      "fashion": 3475,
      "During": 3476,
      "weapons": 3477,
      "olf": 3478,
      "riff": 3479,
      "trust": 3480,
      "irt": 3481,
      "ometimes": 3482,
      "Other": 3483,
      "speech": 3484,
      "sec": 3485,
      "197": 3486,
      "Real": 3487,
      "treated": 3488,
      "considered": 3489,
      "bon": 3490,
      "moder": 3491,
      "faces": 3492,
      "intro": 3493,
      "Angeles": 3494,
      "Dani": 3495,
      "clus": 3496,
      "signed": 3497,
      "tori": 3498,
      "Carol": 3499,
      "explain": 3500,
      "showing": 3501,
      "afternoon": 3502,
      "igence": 3503,
      "trou": 3504,
      "enger": 3505,
      "Gener": 3506,
      "challenge": 3507,
      "sens": 3508,
      "largest": 3509,
      "Sim": 3510,
      "normal": 3511,
      "ption": 3512,
      "word": 3513,
      "rief": 3514,
      "council": 3515,
      "performance": 3516,
      "gain": 3517,
      "middle": 3518,
      "Bur": 3519,
      "secret": 3520,
      "India": 3521,
      "effort": 3522,
      "Far": 3523,
      "broke": 3524,
      "television": 3525,
      "written": 3526,
      "economy": 3527,
      "Mag": 3528,
      "citiz": 3529,
      "aed": 3530,
      "iction": 3531,
      "costs": 3532,
      "istic": 3533,
      "evening": 3534,
      "33": 3535,
      "diag": 3536,
      "iled": 3537,
      "coast": 3538,
      "antic": 3539,
      "seeing": 3540,
      "attempt": 3541,
      "scored": 3542,
      "armed": 3543,
      "efforts": 3544,
      "introdu": 3545,
      "iger": 3546,
      "ote": 3547,
      "Online": 3548,
      "Kim": 3549,
      "quality": 3550,
      "wouldn": 3551,
      "designed": 3552,
      "Mexico": 3553,
      "nearby": 3554,
      "ension": 3555,
      "emerged": 3556,
      "true": 3557,
      "soldiers": 3558,
      "ordered": 3559,
      "character": 3560,
      "opportunity": 3561,
      "cue": 3562,
      "lawyer": 3563,
      "Reporter": 3564,
      "issued": 3565,
      "bey": 3566,
      "Egy": 3567,
      "tick": 3568,
      "particularly": 3569,
      "cred": 3570,
      "uty": 3571,
      "Sand": 3572,
      "terms": 3573,
      "rise": 3574,
      "struct": 3575,
      "sense": 3576,
      "cohol": 3577,
      "responsible": 3578,
      "spread": 3579,
      "agement": 3580,
      "alter": 3581,
      "cash": 3582,
      "example": 3583,
      "unable": 3584,
      "necess": 3585,
      "related": 3586,
      "Egypt": 3587,
      "concerns": 3588,
      "wait": 3589,
      "poll": 3590,
      "aked": 3591,
      "Times": 3592,
      "bass": 3593,
      "irst": 3594,
      "warning": 3595,
      "Louis": 3596,
      "completely": 3597,
      "bought": 3598,
      "arms": 3599,
      "eventually": 3600,
      "ini": 3601,
      "hero": 3602,
      "schools": 3603,
      "iful": 3604,
      "agre": 3605,
      "typ": 3606,
      "figure": 3607,
      "Madrid": 3608,
      "ountain": 3609,
      "Dis": 3610,
      "wis": 3611,
      "church": 3612,
      "global": 3613,
      "Def": 3614,
      "formed": 3615,
      "comfort": 3616,
      "diagno": 3617,
      "broken": 3618,
      "temper": 3619,
      "lower": 3620,
      "Wales": 3621,
      "wish": 3622,
      "reportedly": 3623,
      "telling": 3624,
      "Sw": 3625,
      "Green": 3626,
      "crisis": 3627,
      "center": 3628,
      "experts": 3629,
      "Spain": 3630,
      "Law": 3631,
      "captain": 3632,
      "Although": 3633,
      "animals": 3634,
      "rey": 3635,
      "mobile": 3636,
      "Mary": 3637,
      "via": 3638,
      "ili": 3639,
      "administration": 3640,
      "insur": 3641,
      "adium": 3642,
      "Robert": 3643,
      "Bill": 3644,
      "aches": 3645,
      "spend": 3646,
      "2006": 3647,
      "Sport": 3648,
      "Gar": 3649,
      "fellow": 3650,
      "higher": 3651,
      "rol": 3652,
      "liament": 3653,
      "exact": 3654,
      "fa": 3655,
      "estab": 3656,
      "talking": 3657,
      "orters": 3658,
      "aming": 3659,
      "holding": 3660,
      "Arab": 3661,
      "successful": 3662,
      "anda": 3663,
      "increasing": 3664,
      "favour": 3665,
      "determin": 3666,
      "Jose": 3667,
      "lay": 3668,
      "managed": 3669,
      "Mel": 3670,
      "piece": 3671,
      "cop": 3672,
      "wonder": 3673,
      "uk": 3674,
      "owners": 3675,
      "ems": 3676,
      "girlfriend": 3677,
      "atory": 3678,
      "Today": 3679,
      "neighbor": 3680,
      "Ass": 3681,
      "relig": 3682,
      "save": 3683,
      "inger": 3684,
      "zer": 3685,
      "meant": 3686,
      "perform": 3687,
      "Andrew": 3688,
      "newspaper": 3689,
      "airs": 3690,
      "squad": 3691,
      "rob": 3692,
      "ensure": 3693,
      "central": 3694,
      "Van": 3695,
      "ears": 3696,
      "Then": 3697,
      "blue": 3698,
      "ilities": 3699,
      "suffering": 3700,
      "La": 3701,
      "push": 3702,
      "ISIS": 3703,
      "han": 3704,
      "award": 3705,
      "charity": 3706,
      "environ": 3707,
      "feed": 3708,
      "36": 3709,
      "mates": 3710,
      "jected": 3711,
      "Islamic": 3712,
      "heavy": 3713,
      "300": 3714,
      "improve": 3715,
      "aircraft": 3716,
      "Fed": 3717,
      "asking": 3718,
      "stant": 3719,
      "movie": 3720,
      "influ": 3721,
      "God": 3722,
      "Sur": 3723,
      "psy": 3724,
      "rules": 3725,
      "levels": 3726,
      "Thomas": 3727,
      "justice": 3728,
      "gard": 3729,
      "flood": 3730,
      "Lee": 3731,
      "striker": 3732,
      "pon": 3733,
      "Paris": 3734,
      "unch": 3735,
      "eper": 3736,
      "animal": 3737,
      "twice": 3738,
      "anta": 3739,
      "quir": 3740,
      "eat": 3741,
      "sports": 3742,
      "alcohol": 3743,
      "streets": 3744,
      "bud": 3745,
      "gency": 3746,
      "pretty": 3747,
      "iny": 3748,
      "circ": 3749,
      "owing": 3750,
      "regard": 3751,
      "lock": 3752,
      "Watch": 3753,
      "itche": 3754,
      "screen": 3755,
      "communic": 3756,
      "prov": 3757,
      "umb": 3758,
      "Justice": 3759,
      "throughout": 3760,
      "resear": 3761,
      "jobs": 3762,
      "illa": 3763,
      "incredi": 3764,
      "azine": 3765,
      "send": 3766,
      "196": 3767,
      "associ": 3768,
      "NHS": 3769,
      "straight": 3770,
      "intell": 3771,
      "General": 3772,
      "Army": 3773,
      "Author": 3774,
      "Atl": 3775,
      "severe": 3776,
      "ift": 3777,
      "conduct": 3778,
      "itself": 3779,
      "stitute": 3780,
      "phen": 3781,
      "prosecut": 3782,
      "34": 3783,
      "fine": 3784,
      "stab": 3785,
      "luck": 3786,
      "Italy": 3787,
      "accep": 3788,
      "ram": 3789,
      "carrying": 3790,
      "Wood": 3791,
      "paper": 3792,
      "crowd": 3793,
      "reporters": 3794,
      "defense": 3795,
      "iced": 3796,
      "angu": 3797,
      "doz": 3798,
      "waiting": 3799,
      "exist": 3800,
      "material": 3801,
      "Pakistan": 3802,
      "inson": 3803,
      "azing": 3804,
      "Senate": 3805,
      "pping": 3806,
      "haps": 3807,
      "Syrian": 3808,
      "raise": 3809,
      "feeling": 3810,
      "Since": 3811,
      "dream": 3812,
      "removed": 3813,
      "numbers": 3814,
      "glass": 3815,
      "ador": 3816,
      "bodies": 3817,
      "Vir": 3818,
      "sort": 3819,
      "remark": 3820,
      "anish": 3821,
      "fighters": 3822,
      "nuclear": 3823,
      "supporters": 3824,
      "repeated": 3825,
      "penalty": 3826,
      "natural": 3827,
      "Daniel": 3828,
      "walking": 3829,
      "doub": 3830,
      "Ash": 3831,
      "Sar": 3832,
      "education": 3833,
      "pulled": 3834,
      "text": 3835,
      "absol": 3836,
      "anks": 3837,
      "aine": 3838,
      "reached": 3839,
      "concerned": 3840,
      "Harry": 3841,
      "easy": 3842,
      "wild": 3843,
      "places": 3844,
      "struction": 3845,
      "older": 3846,
      "fired": 3847,
      "gang": 3848,
      "37": 3849,
      "Bal": 3850,
      "doll": 3851,
      "Det": 3852,
      "struck": 3853,
      "First": 3854,
      "dig": 3855,
      "BI": 3856,
      "footage": 3857,
      "ites": 3858,
      "isters": 3859,
      "Under": 3860,
      "storm": 3861,
      "photograp": 3862,
      "myself": 3863,
      "wound": 3864,
      "Union": 3865,
      "occas": 3866,
      "millions": 3867,
      "wealth": 3868,
      "documents": 3869,
      "Act": 3870,
      "absolute": 3871,
      "dad": 3872,
      "century": 3873,
      "song": 3874,
      "suggested": 3875,
      "positive": 3876,
      "prim": 3877,
      "rif": 3878,
      "oph": 3879,
      "sor": 3880,
      "mate": 3881,
      "version": 3882,
      "attend": 3883,
      "ider": 3884,
      "population": 3885,
      "?'": 3886,
      "fourth": 3887,
      "competition": 3888,
      "atures": 3889,
      "ampton": 3890,
      "type": 3891,
      "dogs": 3892,
      "green": 3893,
      "isl": 3894,
      "VID": 3895,
      "Crown": 3896,
      "burg": 3897,
      "guest": 3898,
      "quarter": 3899,
      "reli": 3900,
      "planned": 3901,
      "deaths": 3902,
      "decades": 3903,
      "majority": 3904,
      "hib": 3905,
      "prior": 3906,
      "resh": 3907,
      "usual": 3908,
      "owers": 3909,
      "ours": 3910,
      "bedroom": 3911,
      "hopes": 3912,
      "pup": 3913,
      "attract": 3914,
      "opin": 3915,
      "swe": 3916,
      "destro": 3917,
      "stars": 3918,
      "mouth": 3919,
      "sentenced": 3920,
      "products": 3921,
      "Both": 3922,
      "Hel": 3923,
      "boat": 3924,
      "fee": 3925,
      "whom": 3926,
      "McC": 3927,
      "appropri": 3928,
      "worst": 3929,
      "slow": 3930,
      "approach": 3931,
      "Good": 3932,
      "unk": 3933,
      "attacked": 3934,
      "Jon": 3935,
      "VIDEO": 3936,
      "Former": 3937,
      "Super": 3938,
      "Franc": 3939,
      "network": 3940,
      "Star": 3941,
      "faced": 3942,
      "inno": 3943,
      "original": 3944,
      "messages": 3945,
      "Camp": 3946,
      "includes": 3947,
      "Tal": 3948,
      "transfer": 3949,
      "nel": 3950,
      "Adam": 3951,
      "Mat": 3952,
      "oul": 3953,
      "dark": 3954,
      "dropped": 3955,
      "spl": 3956,
      "omen": 3957,
      "highest": 3958,
      "Most": 3959,
      "boo": 3960,
      "computer": 3961,
      "thes": 3962,
      "istry": 3963,
      "aste": 3964,
      "cerem": 3965,
      "planning": 3966,
      "display": 3967,
      "beautiful": 3968,
      "selling": 3969,
      "helping": 3970,
      "deg": 3971,
      "usually": 3972,
      "zz": 3973,
      "ience": 3974,
      "progress": 3975,
      "sale": 3976,
      "rev": 3977,
      "bly": 3978,
      "Jim": 3979,
      "benefits": 3980,
      "jailed": 3981,
      "38": 3982,
      "Earth": 3983,
      "suicide": 3984,
      "stic": 3985,
      "collection": 3986,
      "Security": 3987,
      "certainly": 3988,
      "sales": 3989,
      "ape": 3990,
      "explained": 3991,
      "names": 3992,
      "sche": 3993,
      "abor": 3994,
      "healthy": 3995,
      "becoming": 3996,
      "shut": 3997,
      "iple": 3998,
      "Fin": 3999,
      "Service": 4000,
      "bell": 4001,
      "Lord": 4002,
      "Francis": 4003,
      "47": 4004,
      "watching": 4005,
      "guard": 4006,
      "fly": 4007,
      "opposition": 4008,
      "Barack": 4009,
      "chairman": 4010,
      "Judge": 4011,
      "double": 4012,
      "flag": 4013,
      "apartment": 4014,
      "ski": 4015,
      "Mean": 4016,
      "ustr": 4017,
      "iding": 4018,
      "claiming": 4019,
      "development": 4020,
      "devast": 4021,
      "presidential": 4022,
      "symp": 4023,
      "alongside": 4024,
      "scor": 4025,
      "gry": 4026,
      "massive": 4027,
      "From": 4028,
      "reform": 4029,
      "ya": 4030,
      "stress": 4031,
      "hun": 4032,
      "sight": 4033,
      "Str": 4034,
      "ements": 4035,
      "2005": 4036,
      "ari": 4037,
      "seemed": 4038,
      "hang": 4039,
      "island": 4040,
      "55": 4041,
      "teams": 4042,
      "’,": 4043,
      "affected": 4044,
      "laws": 4045,
      "48": 4046,
      "lic": 4047,
      "Den": 4048,
      "compared": 4049,
      "hum": 4050,
      "illegal": 4051,
      "iev": 4052,
      "subject": 4053,
      "winner": 4054,
      "seat": 4055,
      "useum": 4056,
      "Old": 4057,
      "Party": 4058,
      "Syd": 4059,
      "mir": 4060,
      "gay": 4061,
      "Middle": 4062,
      "apolog": 4063,
      "learn": 4064,
      "Bor": 4065,
      "Ital": 4066,
      "icles": 4067,
      "jum": 4068,
      "err": 4069,
      "Met": 4070,
      "maintain": 4071,
      "otel": 4072,
      "professional": 4073,
      "reedom": 4074,
      "conserv": 4075,
      "Steve": 4076,
      "insisted": 4077,
      "extremely": 4078,
      "shared": 4079,
      "Virgin": 4080,
      "strike": 4081,
      "iment": 4082,
      "Post": 4083,
      "Sydney": 4084,
      "reasons": 4085,
      "thinking": 4086,
      "patient": 4087,
      "confl": 4088,
      "uled": 4089,
      "clearly": 4090,
      "gg": 4091,
      "male": 4092,
      "handed": 4093,
      "ctors": 4094,
      "sound": 4095,
      "ips": 4096,
      "stick": 4097,
      "nes": 4098,
      "Republicans": 4099,
      "specific": 4100,
      "Ram": 4101,
      "unders": 4102,
      "rend": 4103,
      "continues": 4104,
      "sometimes": 4105,
      "era": 4106,
      "veter": 4107,
      "neighbour": 4108,
      "Wal": 4109,
      "fied": 4110,
      "smart": 4111,
      "putting": 4112,
      "Prof": 4113,
      "captured": 4114,
      "44": 4115,
      "records": 4116,
      "comed": 4117,
      "erc": 4118,
      "Meanwhile": 4119,
      "MailOnline": 4120,
      "Pri": 4121,
      "starting": 4122,
      "Bir": 4123,
      "oked": 4124,
      "Commission": 4125,
      "Chief": 4126,
      "Champions": 4127,
      "bury": 4128,
      "debate": 4129,
      "stren": 4130,
      "Bu": 4131,
      "department": 4132,
      "Kel": 4133,
      "Fam": 4134,
      "plead": 4135,
      "99": 4136,
      "choice": 4137,
      "active": 4138,
      "magazine": 4139,
      "castle": 4140,
      "pin": 4141,
      "provided": 4142,
      "particip": 4143,
      "talks": 4144,
      "Frank": 4145,
      "modern": 4146,
      "committed": 4147,
      "proud": 4148,
      "rep": 4149,
      "va": 4150,
      "ological": 4151,
      "facing": 4152,
      "ateg": 4153,
      "losing": 4154,
      "Barcel": 4155,
      "degree": 4156,
      "ils": 4157,
      "expressed": 4158,
      "ba": 4159,
      "swim": 4160,
      "Victo": 4161,
      "EU": 4162,
      "bow": 4163,
      "yl": 4164,
      "Big": 4165,
      "nur": 4166,
      "filed": 4167,
      "Barcelona": 4168,
      "fare": 4169,
      "restaurant": 4170,
      "Bush": 4171,
      "Nick": 4172,
      "Holly": 4173,
      "Comm": 4174,
      "anch": 4175,
      "below": 4176,
      "Child": 4177,
      "Oh": 4178,
      "rape": 4179,
      "insp": 4180,
      "Italian": 4181,
      "medic": 4182,
      "investigators": 4183,
      "FBI": 4184,
      "seas": 4185,
      "beach": 4186,
      "Press": 4187,
      "Their": 4188,
      "histor": 4189,
      "features": 4190,
      "ield": 4191,
      "rich": 4192,
      "brief": 4193,
      "ka": 4194,
      "tack": 4195,
      "ande": 4196,
      "39": 4197,
      "Ryan": 4198,
      "tourn": 4199,
      "fortun": 4200,
      "cold": 4201,
      "langu": 4202,
      "advert": 4203,
      "breaking": 4204,
      "ER": 4205,
      "spark": 4206,
      "Charles": 4207,
      "Gold": 4208,
      "stun": 4209,
      "Kar": 4210,
      "Speaking": 4211,
      "fish": 4212,
      "auto": 4213,
      "league": 4214,
      "aps": 4215,
      "shel": 4216,
      "native": 4217,
      "custody": 4218,
      "?\"": 4219,
      "42": 4220,
      "receive": 4221,
      "Georg": 4222,
      "Association": 4223,
      "prin": 4224,
      "ito": 4225,
      "Tim": 4226,
      "discover": 4227,
      "ailed": 4228,
      "internet": 4229,
      "device": 4230,
      "streng": 4231,
      "bath": 4232,
      "walked": 4233,
      "eating": 4234,
      "enforce": 4235,
      "attended": 4236,
      "dict": 4237,
      "ruled": 4238,
      "village": 4239,
      "Ve": 4240,
      "intelligence": 4241,
      "xim": 4242,
      "teenager": 4243,
      "runs": 4244,
      "Olympic": 4245,
      "minor": 4246,
      "CC": 4247,
      "violent": 4248,
      "Web": 4249,
      "drop": 4250,
      "Ukraine": 4251,
      "affect": 4252,
      "Tay": 4253,
      "tough": 4254,
      "Wat": 4255,
      "Argent": 4256,
      "Mac": 4257,
      "Resear": 4258,
      "Spanish": 4259,
      "defeat": 4260,
      "sick": 4261,
      "acked": 4262,
      "Dar": 4263,
      "rebel": 4264,
      "Ari": 4265,
      "origin": 4266,
      "individual": 4267,
      "causing": 4268,
      "announce": 4269,
      "estimated": 4270,
      "ville": 4271,
      "Romney": 4272,
      "truck": 4273,
      "ission": 4274,
      "knows": 4275,
      "signs": 4276,
      "andal": 4277,
      ".,": 4278,
      "psych": 4279,
      "vor": 4280,
      "goti": 4281,
      "Del": 4282,
      "dome": 4283,
      "Murray": 4284,
      "flat": 4285,
      "Ga": 4286,
      "mous": 4287,
      "Christian": 4288,
      "san": 4289,
      "linked": 4290,
      "Hen": 4291,
      "tests": 4292,
      "enjoy": 4293,
      "clin": 4294,
      "serve": 4295,
      "fant": 4296,
      "Qaed": 4297,
      "resol": 4298,
      "sky": 4299,
      "rig": 4300,
      "Qaeda": 4301,
      "beyond": 4302,
      "window": 4303,
      "sters": 4304,
      "Tri": 4305,
      "apparently": 4306,
      "lad": 4307,
      "hose": 4308,
      "obv": 4309,
      "serving": 4310,
      "views": 4311,
      "legisl": 4312,
      "phones": 4313,
      "Over": 4314,
      "400": 4315,
      "kno": 4316,
      "controll": 4317,
      "traffic": 4318,
      "cities": 4319,
      "reality": 4320,
      "neck": 4321,
      "scientists": 4322,
      "pled": 4323,
      "college": 4324,
      "Colle": 4325,
      "bola": 4326,
      "fielder": 4327,
      "flying": 4328,
      "Rad": 4329,
      "stag": 4330,
      "discuss": 4331,
      "Sus": 4332,
      "exerc": 4333,
      "Cur": 4334,
      "2004": 4335,
      "imag": 4336,
      "oned": 4337,
      "lets": 4338,
      "sad": 4339,
      "negoti": 4340,
      "Church": 4341,
      "answer": 4342,
      "rick": 4343,
      "fest": 4344,
      "immigration": 4345,
      "breast": 4346,
      "sitting": 4347,
      "arily": 4348,
      "Som": 4349,
      "practice": 4350,
      "decade": 4351,
      "acqu": 4352,
      "amazing": 4353,
      "keeper": 4354,
      "Dun": 4355,
      "giant": 4356,
      "Fore": 4357,
      "agers": 4358,
      "sets": 4359,
      "ude": 4360,
      "younger": 4361,
      "ledge": 4362,
      "growth": 4363,
      "Ever": 4364,
      "bling": 4365,
      "visited": 4366,
      "Right": 4367,
      "pregnant": 4368,
      "River": 4369,
      "Shar": 4370,
      "ae": 4371,
      "suspic": 4372,
      "Hall": 4373,
      "object": 4374,
      "items": 4375,
      "Sil": 4376,
      "traditional": 4377,
      "spokeswoman": 4378,
      "researchers": 4379,
      "Ire": 4380,
      "46": 4381,
      "operations": 4382,
      "neg": 4383,
      "rescue": 4384,
      "Rober": 4385,
      "annel": 4386,
      "collap": 4387,
      "recomm": 4388,
      "agreement": 4389,
      "annual": 4390,
      "increased": 4391,
      "fuel": 4392,
      "govern": 4393,
      "path": 4394,
      "prices": 4395,
      "Why": 4396,
      "mail": 4397,
      "speaking": 4398,
      "terrorist": 4399,
      "Joe": 4400,
      "beginning": 4401,
      "Boston": 4402,
      "CA": 4403,
      "Home": 4404,
      "Palace": 4405,
      "Ebola": 4406,
      "developed": 4407,
      "concern": 4408,
      "ceremony": 4409,
      "Kate": 4410,
      "temp": 4411,
      "keeping": 4412,
      "occurred": 4413,
      "':": 4414,
      "movement": 4415,
      "bottom": 4416,
      "lux": 4417,
      "appropriate": 4418,
      "lights": 4419,
      "49": 4420,
      "protesters": 4421,
      "spotted": 4422,
      "iles": 4423,
      "catch": 4424,
      "value": 4425,
      "parties": 4426,
      "fresh": 4427,
      "convers": 4428,
      "RA": 4429,
      "makers": 4430,
      "boyfriend": 4431,
      "remained": 4432,
      "hurt": 4433,
      "rug": 4434,
      "society": 4435,
      "learned": 4436,
      "favor": 4437,
      "tt": 4438,
      "Bob": 4439,
      "Sci": 4440,
      "exactly": 4441,
      "igan": 4442,
      "radio": 4443,
      "profile": 4444,
      "regime": 4445,
      "toms": 4446,
      "alive": 4447,
      "deli": 4448,
      "watched": 4449,
      "guy": 4450,
      "meaning": 4451,
      "transport": 4452,
      "Ty": 4453,
      "Democratic": 4454,
      "dram": 4455,
      "responsibility": 4456,
      "culture": 4457,
      "setting": 4458,
      "powerful": 4459,
      "crimes": 4460,
      "employees": 4461,
      "pounds": 4462,
      "pray": 4463,
      "Liby": 4464,
      "disap": 4465,
      "physical": 4466,
      "Distr": 4467,
      "behaviour": 4468,
      "Bank": 4469,
      "icop": 4470,
      "politic": 4471,
      "cul": 4472,
      "voters": 4473,
      "necessary": 4474,
      "rough": 4475,
      "suspended": 4476,
      "prepared": 4477,
      "Open": 4478,
      "initially": 4479,
      "shirt": 4480,
      "absolutely": 4481,
      "Put": 4482,
      "sched": 4483,
      "oo": 4484,
      "utch": 4485,
      "apping": 4486,
      "steps": 4487,
      "highly": 4488,
      "agic": 4489,
      "rog": 4490,
      "worker": 4491,
      "mad": 4492,
      "picked": 4493,
      "Democrats": 4494,
      "Ev": 4495,
      "midfielder": 4496,
      "laugh": 4497,
      "voice": 4498,
      "conflict": 4499,
      "controversial": 4500,
      "Ir": 4501,
      "Three": 4502,
      "cean": 4503,
      "hoping": 4504,
      "43": 4505,
      "confident": 4506,
      "Well": 4507,
      "Those": 4508,
      "alys": 4509,
      "pilot": 4510,
      "tic": 4511,
      "challeng": 4512,
      "Mass": 4513,
      "journey": 4514,
      "purch": 4515,
      "university": 4516,
      "determined": 4517,
      "Sol": 4518,
      "deser": 4519,
      "holds": 4520,
      "committee": 4521,
      "attempted": 4522,
      "doubt": 4523,
      "Pet": 4524,
      "dom": 4525,
      "ulted": 4526,
      "pleaded": 4527,
      "Eli": 4528,
      "ni": 4529,
      "scen": 4530,
      "thy": 4531,
      "venue": 4532,
      "Kent": 4533,
      "heav": 4534,
      "ena": 4535,
      "Commit": 4536,
      "grab": 4537,
      "kins": 4538,
      "addition": 4539,
      "oking": 4540,
      "essed": 4541,
      "motor": 4542,
      "75": 4543,
      "proced": 4544,
      "worse": 4545,
      "shortly": 4546,
      "lement": 4547,
      "ultim": 4548,
      "yes": 4549,
      "Taylor": 4550,
      "birthday": 4551,
      "uals": 4552,
      "drinking": 4553,
      "circum": 4554,
      "harm": 4555,
      "fraud": 4556,
      "mond": 4557,
      "Brad": 4558,
      "books": 4559,
      "Brook": 4560,
      "izing": 4561,
      "Hor": 4562,
      "Island": 4563,
      "bail": 4564,
      "broadcast": 4565,
      "inho": 4566,
      "tree": 4567,
      "consum": 4568,
      "suspected": 4569,
      "Down": 4570,
      "Mike": 4571,
      "aker": 4572,
      "required": 4573,
      "len": 4574,
      "seeking": 4575,
      "ieve": 4576,
      "finished": 4577,
      "Tot": 4578,
      "activity": 4579,
      "stitut": 4580,
      "Profess": 4581,
      "Wall": 4582,
      "Wel": 4583,
      "bin": 4584,
      "ula": 4585,
      "Indian": 4586,
      "blog": 4587,
      "detect": 4588,
      "Kat": 4589,
      "upon": 4590,
      "loan": 4591,
      "....": 4592,
      "hall": 4593,
      "commission": 4594,
      "tournament": 4595,
      "domestic": 4596,
      "agues": 4597,
      "Newcastle": 4598,
      "ships": 4599,
      "banned": 4600,
      "haven": 4601,
      "Grand": 4602,
      "ires": 4603,
      "Tor": 4604,
      "ruling": 4605,
      "41": 4606,
      "note": 4607,
      "complex": 4608,
      "prosecutors": 4609,
      "Im": 4610,
      "ON": 4611,
      "measures": 4612,
      "expert": 4613,
      "resign": 4614,
      "enforcement": 4615,
      "instru": 4616,
      "cab": 4617,
      "collect": 4618,
      "budget": 4619,
      "ented": 4620,
      "arian": 4621,
      "mical": 4622,
      "daily": 4623,
      "ases": 4624,
      "propos": 4625,
      "promot": 4626,
      "iPh": 4627,
      "Wilson": 4628,
      "Gree": 4629,
      "rooms": 4630,
      "fix": 4631,
      "separate": 4632,
      "Jersey": 4633,
      "fal": 4634,
      "tweeted": 4635,
      "nar": 4636,
      "Western": 4637,
      "simple": 4638,
      "wing": 4639,
      "Common": 4640,
      "Chic": 4641,
      "ibly": 4642,
      "shots": 4643,
      "Ireland": 4644,
      "Youn": 4645,
      "location": 4646,
      "accus": 4647,
      "stock": 4648,
      "gives": 4649,
      "regul": 4650,
      "agedy": 4651,
      "divor": 4652,
      "Cast": 4653,
      "Ha": 4654,
      "Korean": 4655,
      "yle": 4656,
      "District": 4657,
      "Israeli": 4658,
      "reck": 4659,
      "stances": 4660,
      "mile": 4661,
      "angers": 4662,
      "mountain": 4663,
      "mix": 4664,
      "Moham": 4665,
      "Ter": 4666,
      "investigating": 4667,
      "sole": 4668,
      "diagnosed": 4669,
      "paying": 4670,
      "desper": 4671,
      "commer": 4672,
      "stands": 4673,
      "protests": 4674,
      "singer": 4675,
      "stitution": 4676,
      "perhaps": 4677,
      "Group": 4678,
      "seconds": 4679,
      "Ze": 4680,
      "user": 4681,
      "log": 4682,
      "memor": 4683,
      "bott": 4684,
      "Stephen": 4685,
      "Penn": 4686,
      "district": 4687,
      "unte": 4688,
      "ordan": 4689,
      "clothes": 4690,
      "!'": 4691,
      "multiple": 4692,
      "Ko": 4693,
      "mph": 4694,
      "threatened": 4695,
      "programme": 4696,
      "leng": 4697,
      "Holl": 4698,
      "ife": 4699,
      "tribut": 4700,
      "helicop": 4701,
      "Committee": 4702,
      "Here": 4703,
      "reser": 4704,
      "various": 4705,
      "08": 4706,
      "Liber": 4707,
      "ki": 4708,
      "Sarah": 4709,
      "agree": 4710,
      "Anth": 4711,
      "IA": 4712,
      "analy": 4713,
      "estate": 4714,
      "toward": 4715,
      "Harris": 4716,
      "breath": 4717,
      "northern": 4718,
      "Read": 4719,
      "organization": 4720,
      "sud": 4721,
      "Prose": 4722,
      "fection": 4723,
      "expensive": 4724,
      "belong": 4725,
      "PR": 4726,
      "option": 4727,
      "shocked": 4728,
      "sons": 4729,
      "evin": 4730,
      "require": 4731,
      "ously": 4732,
      "yell": 4733,
      "Victoria": 4734,
      "spoken": 4735,
      "sites": 4736,
      "ola": 4737,
      "willing": 4738,
      "ifth": 4739,
      "Sky": 4740,
      "Fox": 4741,
      "oured": 4742,
      "bum": 4743,
      "IN": 4744,
      "visitors": 4745,
      "difference": 4746,
      "legs": 4747,
      "Fire": 4748,
      "nature": 4749,
      "phy": 4750,
      "confidence": 4751,
      "Great": 4752,
      "attle": 4753,
      "scandal": 4754,
      "Coast": 4755,
      "photographer": 4756,
      "Tony": 4757,
      "da": 4758,
      "isation": 4759,
      "LA": 4760,
      "migr": 4761,
      "cuts": 4762,
      "anced": 4763,
      "Before": 4764,
      "Champion": 4765,
      "tenham": 4766,
      "pitch": 4767,
      "Cost": 4768,
      "aries": 4769,
      "sides": 4770,
      "Earlier": 4771,
      "Invest": 4772,
      "Di": 4773,
      "language": 4774,
      "chemical": 4775,
      "vehicles": 4776,
      "ders": 4777,
      "critical": 4778,
      "applic": 4779,
      "seriously": 4780,
      "bom": 4781,
      "eless": 4782,
      "warm": 4783,
      "actress": 4784,
      "Games": 4785,
      "0s": 4786,
      "consc": 4787,
      "scheduled": 4788,
      "scoring": 4789,
      "defence": 4790,
      "barr": 4791,
      "Hollywood": 4792,
      "Road": 4793,
      "crack": 4794,
      "rank": 4795,
      "Georgia": 4796,
      "gers": 4797,
      "eth": 4798,
      "wheel": 4799,
      "anted": 4800,
      "wick": 4801,
      "Chicago": 4802,
      "rates": 4803,
      "150": 4804,
      "plom": 4805,
      "winter": 4806,
      "Up": 4807,
      "stuff": 4808,
      "relative": 4809,
      "ancing": 4810,
      "Anthony": 4811,
      "session": 4812,
      "2003": 4813,
      "acting": 4814,
      "lyn": 4815,
      "duty": 4816,
      "thanks": 4817,
      "accom": 4818,
      "bound": 4819,
      "partners": 4820,
      "ota": 4821,
      "ids": 4822,
      "aught": 4823,
      "ett": 4824,
      "Cal": 4825,
      "nice": 4826,
      "rule": 4827,
      "ordinary": 4828,
      "artist": 4829,
      "corre": 4830,
      "southern": 4831,
      "hat": 4832,
      "ero": 4833,
      "Follow": 4834,
      "cape": 4835,
      "stret": 4836,
      "encing": 4837,
      "earth": 4838,
      "writing": 4839,
      "OR": 4840,
      "produced": 4841,
      "equip": 4842,
      "acted": 4843,
      "stories": 4844,
      "independent": 4845,
      "sudden": 4846,
      "youth": 4847,
      "sources": 4848,
      "fled": 4849,
      "deput": 4850,
      "acts": 4851,
      "benefit": 4852,
      "responded": 4853,
      "citizens": 4854,
      "aling": 4855,
      "Palest": 4856,
      "icon": 4857,
      "survey": 4858,
      "recorded": 4859,
      "credit": 4860,
      "Jordan": 4861,
      "unit": 4862,
      "kidn": 4863,
      "Simon": 4864,
      "file": 4865,
      "iban": 4866,
      "religious": 4867,
      "trade": 4868,
      "article": 4869,
      "cool": 4870,
      "surface": 4871,
      "hole": 4872,
      "achieve": 4873,
      "skill": 4874,
      "Internet": 4875,
      "encies": 4876,
      "illness": 4877,
      "false": 4878,
      "meth": 4879,
      "Haw": 4880,
      "prove": 4881,
      "ilton": 4882,
      "itt": 4883,
      "65": 4884,
      "recovery": 4885,
      "definite": 4886,
      "Carolina": 4887,
      "inde": 4888,
      "ctic": 4889,
      "inspired": 4890,
      "bear": 4891,
      "army": 4892,
      "Lam": 4893,
      "offers": 4894,
      "disput": 4895,
      "hi": 4896,
      "advice": 4897,
      "ga": 4898,
      "directly": 4899,
      "Ra": 4900,
      "filled": 4901,
      "insurance": 4902,
      "eds": 4903,
      "Taliban": 4904,
      "aband": 4905,
      "horse": 4906,
      "apart": 4907,
      "agon": 4908,
      "rum": 4909,
      "Tory": 4910,
      "mum": 4911,
      "trig": 4912,
      "Year": 4913,
      "Way": 4914,
      "52": 4915,
      "cro": 4916,
      "cou": 4917,
      "mort": 4918,
      "royal": 4919,
      "stood": 4920,
      "amid": 4921,
      "GO": 4922,
      "leadership": 4923,
      "videos": 4924,
      "sts": 4925,
      "raising": 4926,
      "advant": 4927,
      "rising": 4928,
      "declined": 4929,
      "Out": 4930,
      "repeatedly": 4931,
      "freedom": 4932,
      "Authorities": 4933,
      "Dev": 4934,
      "trouble": 4935,
      "cry": 4936,
      "ources": 4937,
      "defender": 4938,
      "bac": 4939,
      "allowing": 4940,
      "production": 4941,
      "lip": 4942,
      "equipment": 4943,
      "College": 4944,
      "virus": 4945,
      "ashes": 4946,
      "Virginia": 4947,
      "wise": 4948,
      "Jenn": 4949,
      "changing": 4950,
      "except": 4951,
      "soft": 4952,
      "Foreign": 4953,
      "Professor": 4954,
      "Airport": 4955,
      "promp": 4956,
      "finish": 4957,
      "prime": 4958,
      "shopping": 4959,
      "clubs": 4960,
      "candidate": 4961,
      "BA": 4962,
      "obtain": 4963,
      "iPhone": 4964,
      "arez": 4965,
      "Young": 4966,
      "Matt": 4967,
      "escape": 4968,
      "Let": 4969,
      "matches": 4970,
      "Canada": 4971,
      "volunte": 4972,
      "remove": 4973,
      "batter": 4974,
      "iana": 4975,
      "inquir": 4976,
      "uge": 4977,
      "Gor": 4978,
      "content": 4979,
      "limited": 4980,
      "Beck": 4981,
      "urning": 4982,
      "isto": 4983,
      "Gal": 4984,
      "owed": 4985,
      "emotional": 4986,
      "Gra": 4987,
      "diet": 4988,
      "delay": 4989,
      "apy": 4990,
      "decis": 4991,
      "Central": 4992,
      "acknow": 4993,
      "Die": 4994,
      "garden": 4995,
      "Michel": 4996,
      "Tube": 4997,
      "Cle": 4998,
      "score": 4999,
      "Andy": 5000,
      "Ferg": 5001,
      "ses": 5002,
      "diplom": 5003,
      "unique": 5004,
      "scale": 5005,
      "Once": 5006,
      "fol": 5007,
      "Lewis": 5008,
      "athan": 5009,
      "failure": 5010,
      "ox": 5011,
      "heat": 5012,
      "declared": 5013,
      "bringing": 5014,
      "eman": 5015,
      "Instead": 5016,
      "pull": 5017,
      "beaten": 5018,
      "hab": 5019,
      "beg": 5020,
      "iling": 5021,
      "iff": 5022,
      "ufact": 5023,
      "itation": 5024,
      "rub": 5025,
      "bles": 5026,
      "Mour": 5027,
      "Steven": 5028,
      "zone": 5029,
      "located": 5030,
      "aze": 5031,
      "faith": 5032,
      "IP": 5033,
      "Net": 5034,
      "Sav": 5035,
      "colleagues": 5036,
      "anny": 5037,
      "secure": 5038,
      "union": 5039,
      "infl": 5040,
      "gradu": 5041,
      "Ox": 5042,
      "drivers": 5043,
      "celebrate": 5044,
      "corpor": 5045,
      "BS": 5046,
      "kne": 5047,
      "Win": 5048,
      "Gaal": 5049,
      "dated": 5050,
      "Human": 5051,
      "igg": 5052,
      "connection": 5053,
      "surprise": 5054,
      "income": 5055,
      "Squ": 5056,
      "Play": 5057,
      "Niger": 5058,
      "Sou": 5059,
      "measure": 5060,
      "minim": 5061,
      "wake": 5062,
      "secretary": 5063,
      "dinner": 5064,
      "09": 5065,
      "Attorney": 5066,
      "bra": 5067,
      "Eric": 5068,
      "status": 5069,
      "53": 5070,
      "angry": 5071,
      "Family": 5072,
      "Conserv": 5073,
      "IC": 5074,
      "kin": 5075,
      "fifth": 5076,
      "settle": 5077,
      "funeral": 5078,
      "nut": 5079,
      "apers": 5080,
      "sust": 5081,
      "corner": 5082,
      "voted": 5083,
      "Cambridge": 5084,
      "2001": 5085,
      "Fl": 5086,
      "worried": 5087,
      "agent": 5088,
      "iel": 5089,
      "rage": 5090,
      "comfortable": 5091,
      "Nations": 5092,
      "Kevin": 5093,
      "frequ": 5094,
      "environment": 5095,
      "photographs": 5096,
      "Ali": 5097,
      "vul": 5098,
      "lucky": 5099,
      "ification": 5100,
      "Lau": 5101,
      "entered": 5102,
      "wich": 5103,
      "Foot": 5104,
      "chain": 5105,
      "Es": 5106,
      "politics": 5107,
      "56": 5108,
      "cused": 5109,
      "supposed": 5110,
      "Investig": 5111,
      "Four": 5112,
      "hasn": 5113,
      "MPs": 5114,
      "feature": 5115,
      "Kenned": 5116,
      "gri": 5117,
      "tight": 5118,
      "atever": 5119,
      "Donald": 5120,
      "mention": 5121,
      "register": 5122,
      "houses": 5123,
      "Found": 5124,
      "cks": 5125,
      "ano": 5126,
      "Jeff": 5127,
      "electric": 5128,
      "pra": 5129,
      "ulting": 5130,
      "poses": 5131,
      "accounts": 5132,
      "consist": 5133,
      "ares": 5134,
      "bulance": 5135,
      "07": 5136,
      "contest": 5137,
      "Fergus": 5138,
      "audience": 5139,
      "ching": 5140,
      "struggling": 5141,
      "urged": 5142,
      "fears": 5143,
      "lawsuit": 5144,
      "moments": 5145,
      "Club": 5146,
      "commercial": 5147,
      "guests": 5148,
      "isa": 5149,
      "Dou": 5150,
      "tort": 5151,
      "mic": 5152,
      "lawyers": 5153,
      "wart": 5154,
      "sand": 5155,
      "additional": 5156,
      "monitor": 5157,
      "ko": 5158,
      "emen": 5159,
      "Cha": 5160,
      "Tottenham": 5161,
      "Ah": 5162,
      "spit": 5163,
      "terrorism": 5164,
      "offering": 5165,
      "Turkey": 5166,
      "posing": 5167,
      "stern": 5168,
      "CEO": 5169,
      "MA": 5170,
      "tragedy": 5171,
      "Fort": 5172,
      "ole": 5173,
      "Bol": 5174,
      "manufact": 5175,
      "Kelly": 5176,
      "surge": 5177,
      "Palestin": 5178,
      "proceed": 5179,
      "quiet": 5180,
      "targeted": 5181,
      "incredible": 5182,
      "54": 5183,
      "Walk": 5184,
      "greater": 5185,
      "Kennedy": 5186,
      "ensions": 5187,
      "alition": 5188,
      "reduce": 5189,
      "inated": 5190,
      "turning": 5191,
      "Lin": 5192,
      "ABC": 5193,
      "grew": 5194,
      "truth": 5195,
      "constant": 5196,
      "matic": 5197,
      "Sa": 5198,
      "headed": 5199,
      "57": 5200,
      "Stu": 5201,
      "background": 5202,
      "aza": 5203,
      "tum": 5204,
      "600": 5205,
      "devices": 5206,
      "frustr": 5207,
      "lection": 5208,
      "chess": 5209,
      "heads": 5210,
      "introduced": 5211,
      "06": 5212,
      "beth": 5213,
      "Maria": 5214,
      "machine": 5215,
      "luxury": 5216,
      "bright": 5217,
      "Ferguson": 5218,
      "worry": 5219,
      "noted": 5220,
      "gather": 5221,
      "individuals": 5222,
      "Because": 5223,
      "ji": 5224,
      "falling": 5225,
      "buildings": 5226,
      "Dire": 5227,
      "assistant": 5228,
      "boost": 5229,
      "elections": 5230,
      "resort": 5231,
      "Er": 5232,
      "revol": 5233,
      "embr": 5234,
      "passenger": 5235,
      "Agency": 5236,
      "systems": 5237,
      "Bow": 5238,
      "carri": 5239,
      "confirm": 5240,
      "effects": 5241,
      "alled": 5242,
      "Tha": 5243,
      "athered": 5244,
      "debut": 5245,
      "returning": 5246,
      "dia": 5247,
      "Ru": 5248,
      "Any": 5249,
      "awa": 5250,
      "mingham": 5251,
      "Morgan": 5252,
      "circumstances": 5253,
      "definitely": 5254,
      "iety": 5255,
      "kil": 5256,
      "split": 5257,
      "aggress": 5258,
      "moon": 5259,
      "wore": 5260,
      "2015": 5261,
      "ride": 5262,
      "doors": 5263,
      "strikes": 5264,
      "protection": 5265,
      "section": 5266,
      "2002": 5267,
      "saving": 5268,
      "founder": 5269,
      "blast": 5270,
      "criticism": 5271,
      "Roberts": 5272,
      "Long": 5273,
      "dating": 5274,
      "Birmingham": 5275,
      "dressed": 5276,
      "Sea": 5277,
      "Pan": 5278,
      "maybe": 5279,
      "domin": 5280,
      "generation": 5281,
      "Who": 5282,
      "wer": 5283,
      "Putin": 5284,
      "standards": 5285,
      "Ver": 5286,
      "email": 5287,
      "completed": 5288,
      "flights": 5289,
      "oner": 5290,
      "stal": 5291,
      "Mir": 5292,
      "teach": 5293,
      "militants": 5294,
      "involve": 5295,
      "reaction": 5296,
      "ials": 5297,
      "beauty": 5298,
      "limit": 5299,
      "sending": 5300,
      "itude": 5301,
      "nis": 5302,
      "receiving": 5303,
      "FI": 5304,
      "iest": 5305,
      "questioned": 5306,
      "Children": 5307,
      "feels": 5308,
      "58": 5309,
      "river": 5310,
      "Supreme": 5311,
      "rail": 5312,
      "Jam": 5313,
      "tood": 5314,
      "ye": 5315,
      "guns": 5316,
      "ume": 5317,
      "Ray": 5318,
      "involving": 5319,
      "understood": 5320,
      "adults": 5321,
      "management": 5322,
      "Dam": 5323,
      "unusual": 5324,
      "Ariz": 5325,
      "signing": 5326,
      "democr": 5327,
      "51": 5328,
      "uni": 5329,
      "knife": 5330,
      "drawn": 5331,
      "Mu": 5332,
      "Beach": 5333,
      "Bre": 5334,
      "hone": 5335,
      "tradition": 5336,
      "favourite": 5337,
      "Dor": 5338,
      "IV": 5339,
      "tiny": 5340,
      "YouTube": 5341,
      "oma": 5342,
      "Rog": 5343,
      "daughters": 5344,
      "weak": 5345,
      "itchen": 5346,
      "Prosecu": 5347,
      "allows": 5348,
      "retired": 5349,
      "temperatures": 5350,
      "zy": 5351,
      "idel": 5352,
      "iley": 5353,
      "enjoyed": 5354,
      "Southampton": 5355,
      "regularly": 5356,
      "Cath": 5357,
      "GP": 5358,
      "gal": 5359,
      "weapon": 5360,
      "experienced": 5361,
      "acking": 5362,
      "Medical": 5363,
      "Scottish": 5364,
      "roy": 5365,
      "elling": 5366,
      "59": 5367,
      "thank": 5368,
      "outs": 5369,
      "Mess": 5370,
      "decide": 5371,
      "ifying": 5372,
      "neighborhood": 5373,
      "grown": 5374,
      "upset": 5375,
      "threatening": 5376,
      "stable": 5377,
      "iation": 5378,
      "mayor": 5379,
      "Ba": 5380,
      "inspe": 5381,
      "establish": 5382,
      "Hay": 5383,
      "nam": 5384,
      "Zim": 5385,
      "Arizona": 5386,
      "Japanese": 5387,
      "friendly": 5388,
      "ologist": 5389,
      "relatives": 5390,
      "cameras": 5391,
      "providing": 5392,
      "Force": 5393,
      "roof": 5394,
      "explos": 5395,
      "pieces": 5396,
      "Lit": 5397,
      "condem": 5398,
      "250": 5399,
      "rival": 5400,
      "Miller": 5401,
      "operating": 5402,
      "cluded": 5403,
      "Sc": 5404,
      "Sing": 5405,
      "Navy": 5406,
      "depress": 5407,
      "activities": 5408,
      "witnesses": 5409,
      "evol": 5410,
      "quarters": 5411,
      "NBC": 5412,
      "plot": 5413,
      "oppon": 5414,
      "promised": 5415,
      "increasingly": 5416,
      "Hong": 5417,
      "jet": 5418,
      "swit": 5419,
      "symptoms": 5420,
      "illy": 5421,
      "wounded": 5422,
      "threats": 5423,
      "Rooney": 5424,
      "damaged": 5425,
      "backed": 5426,
      "square": 5427,
      "ables": 5428,
      "ruption": 5429,
      "theast": 5430,
      "agents": 5431,
      "brut": 5432,
      "shape": 5433,
      "funding": 5434,
      "rom": 5435,
      "aland": 5436,
      "presence": 5437,
      "produce": 5438,
      "Dan": 5439,
      "fatal": 5440,
      "reading": 5441,
      "Like": 5442,
      "strength": 5443,
      "05": 5444,
      "Work": 5445,
      "pushed": 5446,
      "Ann": 5447,
      "deadly": 5448,
      "FL": 5449,
      "entertain": 5450,
      "stolen": 5451,
      "soldier": 5452,
      "Institute": 5453,
      "recru": 5454,
      "hid": 5455,
      "cock": 5456,
      "correct": 5457,
      "Reg": 5458,
      "uce": 5459,
      "tery": 5460,
      "Eliza": 5461,
      "businesses": 5462,
      "pal": 5463,
      "debt": 5464,
      "creating": 5465,
      "gro": 5466,
      "DNA": 5467,
      "Ster": 5468,
      "800": 5469,
      "Lat": 5470,
      "science": 5471,
      "Color": 5472,
      "nell": 5473,
      "advantage": 5474,
      "surrounding": 5475,
      "Ford": 5476,
      "trick": 5477,
      "listed": 5478,
      "larger": 5479,
      "primary": 5480,
      "leaves": 5481,
      "orders": 5482,
      "beating": 5483,
      "western": 5484,
      "Ministry": 5485,
      "syn": 5486,
      "construction": 5487,
      "conscious": 5488,
      "Mem": 5489,
      "retail": 5490,
      "thew": 5491,
      "failing": 5492,
      "dance": 5493,
      "likes": 5494,
      "Alan": 5495,
      "exercise": 5496,
      "helps": 5497,
      "intended": 5498,
      "Cub": 5499,
      "crimin": 5500,
      "suggests": 5501,
      "Hart": 5502,
      "influence": 5503,
      "vulner": 5504,
      "aces": 5505,
      "anna": 5506,
      "Mun": 5507,
      "ela": 5508,
      "aran": 5509,
      "barrass": 5510,
      "destroyed": 5511,
      "belief": 5512,
      "consult": 5513,
      "Matthew": 5514,
      "brothers": 5515,
      "drove": 5516,
      "suspects": 5517,
      "historic": 5518,
      "Prin": 5519,
      "eing": 5520,
      "pas": 5521,
      "aret": 5522,
      "Lind": 5523,
      "stores": 5524,
      "prop": 5525,
      "rence": 5526,
      "ulate": 5527,
      "Centre": 5528,
      "EA": 5529,
      "keen": 5530,
      "Gen": 5531,
      "Assad": 5532,
      "ingly": 5533,
      "colour": 5534,
      "si": 5535,
      "prem": 5536,
      "originally": 5537,
      "bigger": 5538,
      "Davis": 5539,
      "Spr": 5540,
      "Kong": 5541,
      "Zealand": 5542,
      "Men": 5543,
      "Blo": 5544,
      "auction": 5545,
      "memory": 5546,
      "Argentina": 5547,
      "plays": 5548,
      "survived": 5549,
      "orary": 5550,
      "policies": 5551,
      "Lake": 5552,
      "umn": 5553,
      "Diego": 5554,
      "opted": 5555,
      "proved": 5556,
      "affair": 5557,
      "aldo": 5558,
      "rescu": 5559,
      "employment": 5560,
      "argued": 5561,
      "complaint": 5562,
      "vac": 5563,
      "rant": 5564,
      "plat": 5565,
      "potentially": 5566,
      "forms": 5567,
      "atest": 5568,
      "eastern": 5569,
      "pes": 5570,
      "saved": 5571,
      "slight": 5572,
      "interested": 5573,
      "species": 5574,
      "epis": 5575,
      "deploy": 5576,
      "nic": 5577,
      "extrem": 5578,
      "yard": 5579,
      "Gary": 5580,
      "Greg": 5581,
      "Burn": 5582,
      "adm": 5583,
      "mine": 5584,
      "Abu": 5585,
      "Jour": 5586,
      "announcement": 5587,
      "edge": 5588,
      "athlet": 5589,
      "achu": 5590,
      "Olympics": 5591,
      "sett": 5592,
      "iami": 5593,
      "easily": 5594,
      "professor": 5595,
      "models": 5596,
      "killer": 5597,
      "icated": 5598,
      "tool": 5599,
      "plus": 5600,
      "Yorkshire": 5601,
      "ademy": 5602,
      "noticed": 5603,
      "heading": 5604,
      "adult": 5605,
      "Miami": 5606,
      "Stadium": 5607,
      "aled": 5608,
      "happens": 5609,
      "iversary": 5610,
      "governor": 5611,
      "cin": 5612,
      "Atlanta": 5613,
      "mand": 5614,
      "master": 5615,
      "affili": 5616,
      "Mourinho": 5617,
      "istol": 5618,
      "reput": 5619,
      "analys": 5620,
      "bags": 5621,
      "lected": 5622,
      "Duchess": 5623,
      "illance": 5624,
      "contacted": 5625,
      "delight": 5626,
      "planet": 5627,
      "py": 5628,
      "meat": 5629,
      "pursu": 5630,
      "iring": 5631,
      "babies": 5632,
      "vals": 5633,
      "Roman": 5634,
      "inet": 5635,
      "tail": 5636,
      "2000": 5637,
      "bare": 5638,
      "panel": 5639,
      "ongoing": 5640,
      "Only": 5641,
      "spirit": 5642,
      "hire": 5643,
      "tot": 5644,
      "Costa": 5645,
      "Yet": 5646,
      "ams": 5647,
      "thus": 5648,
      "presents": 5649,
      "erous": 5650,
      "chest": 5651,
      "Everton": 5652,
      "climate": 5653,
      "Belg": 5654,
      "parliament": 5655,
      "Colorado": 5656,
      "sought": 5657,
      "Pad": 5658,
      "iband": 5659,
      "knowledge": 5660,
      "odd": 5661,
      "Juli": 5662,
      "facility": 5663,
      "termine": 5664,
      "Trust": 5665,
      "accepted": 5666,
      "Roy": 5667,
      "Evans": 5668,
      "determine": 5669,
      "assess": 5670,
      "disaster": 5671,
      "driven": 5672,
      "occup": 5673,
      "Sor": 5674,
      "distr": 5675,
      "passion": 5676,
      "dozens": 5677,
      "hill": 5678,
      "ovic": 5679,
      "thro": 5680,
      "Miliband": 5681,
      "Northern": 5682,
      "helicopter": 5683,
      "itz": 5684,
      "Hal": 5685,
      "Kir": 5686,
      "string": 5687,
      "designer": 5688,
      "focused": 5689,
      "strain": 5690,
      "reflect": 5691,
      "hatt": 5692,
      "function": 5693,
      "iano": 5694,
      "busy": 5695,
      "occasion": 5696,
      "escap": 5697,
      "possibility": 5698,
      "itch": 5699,
      "legislation": 5700,
      "vessel": 5701,
      "happening": 5702,
      "standard": 5703,
      "pa": 5704,
      "Jay": 5705,
      "resist": 5706,
      "Tour": 5707,
      "task": 5708,
      "Saf": 5709,
      "kitchen": 5710,
      "inquest": 5711,
      "Bus": 5712,
      "isher": 5713,
      "ww": 5714,
      "expand": 5715,
      "Research": 5716,
      "Parliament": 5717,
      "Bern": 5718,
      "Hotel": 5719,
      "embarrass": 5720,
      "Sho": 5721,
      "ulated": 5722,
      "struggle": 5723,
      "housing": 5724,
      "trained": 5725,
      "UN": 5726,
      "promise": 5727,
      "causes": 5728,
      "ardi": 5729,
      "effective": 5730,
      "tribute": 5731,
      "stro": 5732,
      "conversation": 5733,
      "Ros": 5734,
      "appre": 5735,
      "skills": 5736,
      "plastic": 5737,
      "crashed": 5738,
      "attempts": 5739,
      "Elizabeth": 5740,
      "Defense": 5741,
      "Bul": 5742,
      "Ok": 5743,
      "communities": 5744,
      "perman": 5745,
      "Oli": 5746,
      "exhib": 5747,
      "clash": 5748,
      "spitals": 5749,
      "decisions": 5750,
      "anniversary": 5751,
      "maker": 5752,
      "prosecution": 5753,
      "smoke": 5754,
      "passing": 5755,
      "Snow": 5756,
      "setts": 5757,
      "learning": 5758,
      "bars": 5759,
      "iar": 5760,
      "myster": 5761,
      "ais": 5762,
      "journalist": 5763,
      "unlikely": 5764,
      "exclus": 5765,
      "rushed": 5766,
      "Rose": 5767,
      "scan": 5768,
      "surprised": 5769,
      "oted": 5770,
      "Ohio": 5771,
      "earned": 5772,
      "subur": 5773,
      "deputy": 5774,
      "GOP": 5775,
      "essential": 5776,
      "tells": 5777,
      "teachers": 5778,
      "options": 5779,
      "stadium": 5780,
      "icken": 5781,
      "Iraqi": 5782,
      "borne": 5783,
      "Lar": 5784,
      "inches": 5785,
      "Massachu": 5786,
      "uana": 5787,
      "golf": 5788,
      "command": 5789,
      "roads": 5790,
      "identity": 5791,
      "prosecutor": 5792,
      "Women": 5793,
      "Massachusetts": 5794,
      "mosp": 5795,
      "Dutch": 5796,
      "fallen": 5797,
      "inspir": 5798,
      "drag": 5799,
      "scow": 5800,
      "trail": 5801,
      "abs": 5802,
      "sorry": 5803,
      "obs": 5804,
      "visiting": 5805,
      "spring": 5806,
      "trau": 5807,
      "aced": 5808,
      "gate": 5809,
      "Jess": 5810,
      "immediate": 5811,
      "tragic": 5812,
      "identify": 5813,
      "Bridge": 5814,
      "nations": 5815,
      "Pict": 5816,
      "Asia": 5817,
      "Portug": 5818,
      "Gul": 5819,
      "Care": 5820,
      "ronic": 5821,
      "Coll": 5822,
      "profit": 5823,
      "Life": 5824,
      "arrang": 5825,
      "weigh": 5826,
      "label": 5827,
      "recovered": 5828,
      "Ronaldo": 5829,
      "acknowled": 5830,
      "cha": 5831,
      "Suarez": 5832,
      "Rock": 5833,
      "deeply": 5834,
      "none": 5835,
      "conducted": 5836,
      "graphy": 5837,
      "lap": 5838,
      "conservative": 5839,
      "Anderson": 5840,
      "Allen": 5841,
      "legally": 5842,
      "riot": 5843,
      "Kur": 5844,
      "closer": 5845,
      "mistake": 5846,
      "findings": 5847,
      "opinion": 5848,
      "plants": 5849,
      "fought": 5850,
      "ifer": 5851,
      "dollars": 5852,
      "ijing": 5853,
      "jack": 5854,
      "wine": 5855,
      "Hod": 5856,
      "inquiry": 5857,
      "locked": 5858,
      "shout": 5859,
      "asket": 5860,
      "Gard": 5861,
      "tears": 5862,
      "ijuana": 5863,
      "welcome": 5864,
      "Jes": 5865,
      "gathered": 5866,
      "celebrates": 5867,
      "Der": 5868,
      "behavior": 5869,
      "featured": 5870,
      "refuge": 5871,
      "Mont": 5872,
      "Beijing": 5873,
      "ticket": 5874,
      "kiss": 5875,
      "andez": 5876,
      "ambulance": 5877,
      "Dem": 5878,
      "Moscow": 5879,
      "Cole": 5880,
      "fficient": 5881,
      "mostly": 5882,
      "performed": 5883,
      "enty": 5884,
      "ernandez": 5885,
      "zi": 5886,
      "mod": 5887,
      "properly": 5888,
      "scheme": 5889,
      "publicly": 5890,
      "waters": 5891,
      "Cross": 5892,
      "sparked": 5893,
      "rejected": 5894,
      "grandmother": 5895,
      "route": 5896,
      "Mand": 5897,
      "investment": 5898,
      "Swed": 5899,
      "journalists": 5900,
      "notice": 5901,
      "uit": 5902,
      "hate": 5903,
      "tegr": 5904,
      "tend": 5905,
      "AC": 5906,
      "proposed": 5907,
      "letters": 5908,
      "farm": 5909,
      "Foundation": 5910,
      "blame": 5911,
      "iat": 5912,
      "Among": 5913,
      "grav": 5914,
      "Clark": 5915,
      "developing": 5916,
      "province": 5917,
      "sexually": 5918,
      "relax": 5919,
      "bourne": 5920,
      "overall": 5921,
      "choose": 5922,
      "sees": 5923,
      "cards": 5924,
      "ially": 5925,
      "stayed": 5926,
      "client": 5927,
      "igno": 5928,
      "delivered": 5929,
      "conspir": 5930,
      "egg": 5931,
      "write": 5932,
      "Lady": 5933,
      "possibly": 5934,
      "alling": 5935,
      "semi": 5936,
      "iner": 5937,
      "smaller": 5938,
      "Henry": 5939,
      "Art": 5940,
      "Ian": 5941,
      "consequ": 5942,
      "sym": 5943,
      "cycl": 5944,
      "valu": 5945,
      "travelling": 5946,
      "Show": 5947,
      "tu": 5948,
      "unve": 5949,
      "Hun": 5950,
      "evac": 5951,
      "Saudi": 5952,
      "Hamilton": 5953,
      "organiz": 5954,
      "rose": 5955,
      "Yes": 5956,
      "dramatic": 5957,
      "ella": 5958,
      "resources": 5959,
      "Michelle": 5960,
      "testing": 5961,
      "shar": 5962,
      "blow": 5963,
      "iter": 5964,
      "legend": 5965,
      "equal": 5966,
      "Cy": 5967,
      "remote": 5968,
      "presented": 5969,
      "widely": 5970,
      "distri": 5971,
      "ode": 5972,
      "assu": 5973,
      "Buck": 5974,
      "struggled": 5975,
      "pill": 5976,
      "Football": 5977,
      "lan": 5978,
      "enders": 5979,
      "distance": 5980,
      "banks": 5981,
      "ivity": 5982,
      "Mich": 5983,
      "height": 5984,
      "greatest": 5985,
      "cells": 5986,
      "Get": 5987,
      "whatever": 5988,
      "elected": 5989,
      "joint": 5990,
      "taxpay": 5991,
      "Manhatt": 5992,
      "supported": 5993,
      "Top": 5994,
      "bery": 5995,
      "Cook": 5996,
      "loaded": 5997,
      "boast": 5998,
      "largely": 5999,
      "Feder": 6000,
      "complaints": 6001,
      "Manhattan": 6002,
      "elled": 6003,
      "Bag": 6004,
      "chances": 6005,
      "challenges": 6006,
      "satis": 6007,
      "verse": 6008,
      "basis": 6009,
      "icts": 6010,
      "numerous": 6011,
      "cket": 6012,
      "complic": 6013,
      "tie": 6014,
      "exchange": 6015,
      "obviously": 6016,
      "04": 6017,
      "stance": 6018,
      "horrif": 6019,
      "coverage": 6020,
      "dio": 6021,
      "wave": 6022,
      "marks": 6023,
      "prefer": 6024,
      "antly": 6025,
      "cture": 6026,
      "landing": 6027,
      "Cru": 6028,
      "highlight": 6029,
      "Mayor": 6030,
      "prospect": 6031,
      "trees": 6032,
      "Sain": 6033,
      "incidents": 6034,
      "painting": 6035,
      "vulnerable": 6036,
      "films": 6037,
      "Phill": 6038,
      "buying": 6039,
      "trigger": 6040,
      "candidates": 6041,
      "method": 6042,
      "establ": 6043,
      "lunch": 6044,
      "surveillance": 6045,
      "staying": 6046,
      "routine": 6047,
      "offee": 6048,
      "thrown": 6049,
      "ining": 6050,
      "Il": 6051,
      "los": 6052,
      "Princess": 6053,
      "employee": 6054,
      "personnel": 6055,
      "Square": 6056,
      "tun": 6057,
      "compens": 6058,
      "Hou": 6059,
      "grave": 6060,
      "Test": 6061,
      "punish": 6062,
      "bassy": 6063,
      "Bet": 6064,
      "viewers": 6065,
      "approved": 6066,
      "funds": 6067,
      "Francisco": 6068,
      "airline": 6069,
      "controlled": 6070,
      "liber": 6071,
      "medal": 6072,
      "calm": 6073,
      "stuck": 6074,
      "iti": 6075,
      "bike": 6076,
      "Libya": 6077,
      "Nat": 6078,
      "metal": 6079,
      "ache": 6080,
      "prec": 6081,
      "murdered": 6082,
      "Cathol": 6083,
      "ategy": 6084,
      "rebels": 6085,
      "norm": 6086,
      "nurse": 6087,
      "celebrity": 6088,
      "bish": 6089,
      "pointing": 6090,
      "tomor": 6091,
      "nie": 6092,
      "owell": 6093,
      "tomorrow": 6094,
      "possession": 6095,
      "Rac": 6096,
      "hoped": 6097,
      "considering": 6098,
      "About": 6099,
      "politicians": 6100,
      "advoc": 6101,
      "USA": 6102,
      "excited": 6103,
      "liter": 6104,
      "combat": 6105,
      "weren": 6106,
      "lift": 6107,
      "length": 6108,
      "eline": 6109,
      "Channel": 6110,
      "Alexander": 6111,
      "capture": 6112,
      "apt": 6113,
      "inch": 6114,
      "intent": 6115,
      "Cra": 6116,
      "heavily": 6117,
      "Fab": 6118,
      "integr": 6119,
      "grounds": 6120,
      "scenes": 6121,
      "atmosp": 6122,
      "whel": 6123,
      "ala": 6124,
      "tested": 6125,
      "isol": 6126,
      "consu": 6127,
      "yourself": 6128,
      "2016": 6129,
      "Leice": 6130,
      "clothing": 6131,
      "Tran": 6132,
      "ju": 6133,
      "Sher": 6134,
      "Town": 6135,
      "seats": 6136,
      "Charlie": 6137,
      "lon": 6138,
      "dry": 6139,
      "established": 6140,
      "guys": 6141,
      "Brian": 6142,
      "divorce": 6143,
      "agencies": 6144,
      "marked": 6145,
      "tourists": 6146,
      "tag": 6147,
      "Hom": 6148,
      "Sheriff": 6149,
      "predict": 6150,
      "lots": 6151,
      "Rights": 6152,
      "cation": 6153,
      "illing": 6154,
      "eland": 6155,
      "Public": 6156,
      "Ill": 6157,
      "ita": 6158,
      "Space": 6159,
      "rating": 6160,
      "cig": 6161,
      "stagram": 6162,
      "Journal": 6163,
      "landed": 6164,
      "tha": 6165,
      "fighter": 6166,
      "Morris": 6167,
      "map": 6168,
      "Las": 6169,
      "enses": 6170,
      "Soci": 6171,
      "yellow": 6172,
      "Rel": 6173,
      "Villa": 6174,
      "Stud": 6175,
      "Instagram": 6176,
      "buried": 6177,
      "restrict": 6178,
      "cipl": 6179,
      "Mexican": 6180,
      "veteran": 6181,
      "privacy": 6182,
      "lab": 6183,
      "honor": 6184,
      "blamed": 6185,
      "remaining": 6186,
      "Wayne": 6187,
      "Jane": 6188,
      "negative": 6189,
      "ipped": 6190,
      "verdict": 6191,
      "icket": 6192,
      "euro": 6193,
      "investigate": 6194,
      "DA": 6195,
      "authority": 6196,
      "Naz": 6197,
      "tray": 6198,
      "syl": 6199,
      "nom": 6200,
      "Bon": 6201,
      "DC": 6202,
      "honest": 6203,
      "anony": 6204,
      "Milan": 6205,
      "Duke": 6206,
      "cia": 6207,
      "NFL": 6208,
      "filmed": 6209,
      "shoes": 6210,
      "fron": 6211,
      "Best": 6212,
      "Max": 6213,
      "Crime": 6214,
      "Josh": 6215,
      "everybody": 6216,
      "FIFA": 6217,
      "lady": 6218,
      "tact": 6219,
      "museum": 6220,
      "Philip": 6221,
      "Messi": 6222,
      "marijuana": 6223,
      "Sterling": 6224,
      "(£": 6225,
      "markets": 6226,
      "motiv": 6227,
      "icy": 6228,
      "Ap": 6229,
      "dust": 6230,
      "complained": 6231,
      "Glo": 6232,
      "Oscar": 6233,
      "dismissed": 6234,
      "supply": 6235,
      "activists": 6236,
      "bassador": 6237,
      "nick": 6238,
      "adds": 6239,
      "drew": 6240,
      "gotten": 6241,
      "wonderful": 6242,
      "scri": 6243,
      "irts": 6244,
      "talked": 6245,
      "Lev": 6246,
      "Valley": 6247,
      "iser": 6248,
      "balance": 6249,
      "Lad": 6250,
      "Love": 6251,
      "Hamp": 6252,
      "Report": 6253,
      "civilians": 6254,
      "ogue": 6255,
      "offences": 6256,
      "portion": 6257,
      "strategy": 6258,
      "Iranian": 6259,
      "writer": 6260,
      "terrorists": 6261,
      "distribut": 6262,
      "math": 6263,
      "Ow": 6264,
      "rocket": 6265,
      "ulous": 6266,
      "Lead": 6267,
      "fortunately": 6268,
      "impressive": 6269,
      "studies": 6270,
      "code": 6271,
      "stunning": 6272,
      "connected": 6273,
      "Ly": 6274,
      "impossible": 6275,
      "virt": 6276,
      "truly": 6277,
      "Graham": 6278,
      "pleas": 6279,
      "Patrick": 6280,
      "burgh": 6281,
      "Also": 6282,
      "bun": 6283,
      "detail": 6284,
      "aug": 6285,
      "Abd": 6286,
      "relations": 6287,
      "Back": 6288,
      "ET": 6289,
      "teenage": 6290,
      "critics": 6291,
      "infection": 6292,
      "humans": 6293,
      "stein": 6294,
      "understanding": 6295,
      "inct": 6296,
      "Ross": 6297,
      "planes": 6298,
      "gall": 6299,
      "abled": 6300,
      "gym": 6301,
      "desperate": 6302,
      "cutting": 6303,
      "cking": 6304,
      "chose": 6305,
      "Cab": 6306,
      "retire": 6307,
      "Are": 6308,
      "tea": 6309,
      "Pac": 6310,
      "illed": 6311,
      "reputation": 6312,
      "citizen": 6313,
      "pension": 6314,
      "stream": 6315,
      "swimming": 6316,
      "vania": 6317,
      "vey": 6318,
      "rell": 6319,
      "Comp": 6320,
      "torn": 6321,
      "Fer": 6322,
      "terrible": 6323,
      "Still": 6324,
      "aughter": 6325,
      "stepped": 6326,
      "Following": 6327,
      "offensive": 6328,
      "gender": 6329,
      "istics": 6330,
      "Hug": 6331,
      "700": 6332,
      "abandoned": 6333,
      "Little": 6334,
      "jur": 6335,
      "plenty": 6336,
      "brutal": 6337,
      "Week": 6338,
      "associated": 6339,
      "intim": 6340,
      "Lanc": 6341,
      "ansas": 6342,
      "elle": 6343,
      "replaced": 6344,
      "Leon": 6345,
      "programs": 6346,
      "Bud": 6347,
      "dozen": 6348,
      "Ball": 6349,
      "Mars": 6350,
      "parent": 6351,
      "ounced": 6352,
      "Associated": 6353,
      "Jen": 6354,
      "tennis": 6355,
      "parking": 6356,
      "somebody": 6357,
      "shark": 6358,
      "exposed": 6359,
      "thoughts": 6360,
      "cope": 6361,
      "direction": 6362,
      "easier": 6363,
      "Rick": 6364,
      "ouri": 6365,
      "Pen": 6366,
      "sic": 6367,
      "Stand": 6368,
      "seized": 6369,
      "brill": 6370,
      "Malays": 6371,
      "Turk": 6372,
      "disorder": 6373,
      "referred": 6374,
      "Canad": 6375,
      "knee": 6376,
      "Pennsyl": 6377,
      "Laur": 6378,
      "coc": 6379,
      "plor": 6380,
      "defendant": 6381,
      "Kerry": 6382,
      "habit": 6383,
      "interests": 6384,
      "continuing": 6385,
      "Tele": 6386,
      "Cooper": 6387,
      "Jason": 6388,
      "bottle": 6389,
      "anx": 6390,
      "1970": 6391,
      "77": 6392,
      "jump": 6393,
      "appoint": 6394,
      "icking": 6395,
      "aire": 6396,
      "acle": 6397,
      "overwhel": 6398,
      "disappeared": 6399,
      "Detect": 6400,
      "controversy": 6401,
      "targets": 6402,
      "worn": 6403,
      "Each": 6404,
      "hospitals": 6405,
      "supporting": 6406,
      "IT": 6407,
      "prisoners": 6408,
      "iro": 6409,
      "sharing": 6410,
      "Pennsylvania": 6411,
      "yo": 6412,
      "elderly": 6413,
      "Six": 6414,
      "throw": 6415,
      "arrive": 6416,
      "Muslims": 6417,
      "album": 6418,
      "asy": 6419,
      "Khan": 6420,
      "realised": 6421,
      "Bas": 6422,
      "maxim": 6423,
      "Gov": 6424,
      "acceptable": 6425,
      "biz": 6426,
      "remarks": 6427,
      "Championship": 6428,
      "Joseph": 6429,
      "Its": 6430,
      "bills": 6431,
      "Stan": 6432,
      "graphic": 6433,
      "notes": 6434,
      "Time": 6435,
      "olds": 6436,
      "Lyn": 6437,
      "dish": 6438,
      "deter": 6439,
      "devastated": 6440,
      "mut": 6441,
      "Museum": 6442,
      "pupils": 6443,
      "worldwide": 6444,
      "mitted": 6445,
      "Second": 6446,
      "Airl": 6447,
      "Watson": 6448,
      "opinions": 6449,
      "guards": 6450,
      "reduced": 6451,
      "discipl": 6452,
      "symbol": 6453,
      "Nic": 6454,
      "silver": 6455,
      "Irish": 6456,
      "granted": 6457,
      "Christop": 6458,
      "bone": 6459,
      "Arch": 6460,
      "goalkeeper": 6461,
      "Team": 6462,
      "wins": 6463,
      "RS": 6464,
      "Ut": 6465,
      "Hear": 6466,
      "Friend": 6467,
      "Airlines": 6468,
      "patter": 6469,
      "jok": 6470,
      "memorial": 6471,
      "unless": 6472,
      "nose": 6473,
      "sque": 6474,
      "recording": 6475,
      "Rus": 6476,
      "closely": 6477,
      "thinks": 6478,
      "stabbed": 6479,
      "Federal": 6480,
      "Mah": 6481,
      "03": 6482,
      "ored": 6483,
      "ads": 6484,
      "coffee": 6485,
      "zing": 6486,
      "Nev": 6487,
      "waste": 6488,
      "actors": 6489,
      "Queens": 6490,
      "joining": 6491,
      "concluded": 6492,
      "****": 6493,
      "moves": 6494,
      "solution": 6495,
      "statements": 6496,
      "outrage": 6497,
      "arrival": 6498,
      "waves": 6499,
      "rivals": 6500,
      "ua": 6501,
      "Terry": 6502,
      "ellor": 6503,
      "founded": 6504,
      "courts": 6505,
      "Sever": 6506,
      "tear": 6507,
      "etic": 6508,
      "Swan": 6509,
      "vation": 6510,
      "achiev": 6511,
      "initi": 6512,
      "umped": 6513,
      "iew": 6514,
      "awarded": 6515,
      "Jonathan": 6516,
      "Sorry": 6517,
      "barri": 6518,
      "tank": 6519,
      "iers": 6520,
      "acity": 6521,
      "Land": 6522,
      "accur": 6523,
      "editor": 6524,
      "horri": 6525,
      "sis": 6526,
      "shocking": 6527,
      "Vegas": 6528,
      "ja": 6529,
      "rial": 6530,
      "relief": 6531,
      "conviction": 6532,
      "Gun": 6533,
      "Nas": 6534,
      "argument": 6535,
      "aded": 6536,
      "discovery": 6537,
      "survive": 6538,
      "PS": 6539,
      "Santa": 6540,
      "infr": 6541,
      "Ell": 6542,
      "aks": 6543,
      "core": 6544,
      "princ": 6545,
      "uated": 6546,
      "azy": 6547,
      "Organ": 6548,
      "Houston": 6549,
      "prompted": 6550,
      "grade": 6551,
      "atmosphere": 6552,
      "totally": 6553,
      "tware": 6554,
      "Oxford": 6555,
      "!\"": 6556,
      "sar": 6557,
      "risks": 6558,
      "dates": 6559,
      "Cro": 6560,
      "tox": 6561,
      "asp": 6562,
      "connect": 6563,
      "tied": 6564,
      "vital": 6565,
      "eding": 6566,
      "customer": 6567,
      "appearances": 6568,
      "Ashley": 6569,
      "ette": 6570,
      "unities": 6571,
      "vacc": 6572,
      "abroad": 6573,
      "laid": 6574,
      "coalition": 6575,
      "See": 6576,
      "micro": 6577,
      "LL": 6578,
      "sted": 6579,
      "stomach": 6580,
      "66": 6581,
      "OK": 6582,
      "collapsed": 6583,
      "empty": 6584,
      "outbreak": 6585,
      "wash": 6586,
      "dones": 6587,
      "replied": 6588,
      "wid": 6589,
      "knowing": 6590,
      "Palestinian": 6591,
      "slightly": 6592,
      "Robinson": 6593,
      "basic": 6594,
      "flew": 6595,
      "employed": 6596,
      "innocent": 6597,
      "capable": 6598,
      "hitting": 6599,
      "internal": 6600,
      "approached": 6601,
      "consumers": 6602,
      "winds": 6603,
      "explosion": 6604,
      "pregnancy": 6605,
      "tall": 6606,
      "amber": 6607,
      "allas": 6608,
      "ova": 6609,
      "congress": 6610,
      "quake": 6611,
      "forget": 6612,
      "Corn": 6613,
      "acre": 6614,
      "MS": 6615,
      "ashing": 6616,
      "org": 6617,
      "surviv": 6618,
      "stated": 6619,
      "Jr": 6620,
      "Gaza": 6621,
      "bie": 6622,
      "concent": 6623,
      "starts": 6624,
      "encourage": 6625,
      "Sports": 6626,
      "testified": 6627,
      "Anna": 6628,
      "deliber": 6629,
      "Luis": 6630,
      "Asked": 6631,
      "Indones": 6632,
      "Blue": 6633,
      "bbed": 6634,
      "bond": 6635,
      "unclear": 6636,
      "abort": 6637,
      "distur": 6638,
      "Moore": 6639,
      "owns": 6640,
      "revolution": 6641,
      "pover": 6642,
      "fing": 6643,
      "Emma": 6644,
      "imagine": 6645,
      "emic": 6646,
      "1999": 6647,
      "Craig": 6648,
      "dealing": 6649,
      "tat": 6650,
      "arts": 6651,
      "CCTV": 6652,
      "Fred": 6653,
      "Leicester": 6654,
      "Whe": 6655,
      "agan": 6656,
      "sharp": 6657,
      "Anton": 6658,
      "familiar": 6659,
      "Officers": 6660,
      "mothers": 6661,
      "chan": 6662,
      "shad": 6663,
      "meal": 6664,
      "prescri": 6665,
      "unknown": 6666,
      "usion": 6667,
      "encounter": 6668,
      "esc": 6669,
      "cott": 6670,
      "normally": 6671,
      "iPad": 6672,
      "shops": 6673,
      "provides": 6674,
      "criticised": 6675,
      "Christopher": 6676,
      "finger": 6677,
      "defe": 6678,
      "joy": 6679,
      "formal": 6680,
      "ancellor": 6681,
      "ureau": 6682,
      "aimed": 6683,
      "tickets": 6684,
      "fantastic": 6685,
      "zed": 6686,
      "Jennifer": 6687,
      "couples": 6688,
      "Whit": 6689,
      "champions": 6690,
      "spr": 6691,
      "Sud": 6692,
      "hadn": 6693,
      "procedure": 6694,
      "lav": 6695,
      "invited": 6696,
      "rapid": 6697,
      "gap": 6698,
      "Radio": 6699,
      "visible": 6700,
      "toile": 6701,
      "surprising": 6702,
      "uster": 6703,
      "borough": 6704,
      "solid": 6705,
      "satell": 6706,
      "Wenger": 6707,
      "Christie": 6708,
      "Water": 6709,
      "Ple": 6710,
      "replace": 6711,
      "Michigan": 6712,
      "Oper": 6713,
      "amin": 6714,
      "slaughter": 6715,
      "Bayern": 6716,
      "solely": 6717,
      "Gordon": 6718,
      "hunt": 6719,
      "feared": 6720,
      "engaged": 6721,
      "CIA": 6722,
      "appreci": 6723,
      "hidden": 6724,
      "uez": 6725,
      "Director": 6726,
      "sanctions": 6727,
      "quit": 6728,
      "followers": 6729,
      "earning": 6730,
      "badly": 6731,
      "Catholic": 6732,
      "threw": 6733,
      "suddenly": 6734,
      "mel": 6735,
      "Edu": 6736,
      "pson": 6737,
      "Though": 6738,
      "newly": 6739,
      "diff": 6740,
      "print": 6741,
      "arre": 6742,
      "ila": 6743,
      "Canadian": 6744,
      "legg": 6745,
      "Melbourne": 6746,
      "tackle": 6747,
      "cook": 6748,
      "alle": 6749,
      "Edward": 6750,
      "software": 6751,
      "excess": 6752,
      "behalf": 6753,
      "85": 6754,
      "explains": 6755,
      "talent": 6756,
      "Zimmer": 6757,
      "Gulf": 6758,
      "pread": 6759,
      "lah": 6760,
      "anne": 6761,
      "recalled": 6762,
      "corruption": 6763,
      "bench": 6764,
      "gust": 6765,
      "categ": 6766,
      "relatively": 6767,
      "Walker": 6768,
      "episode": 6769,
      "replac": 6770,
      "istani": 6771,
      "Rodgers": 6772,
      "mann": 6773,
      "amb": 6774,
      "Conne": 6775,
      "lifestyle": 6776,
      "harass": 6777,
      "yards": 6778,
      "surrounded": 6779,
      "labor": 6780,
      "extraordinary": 6781,
      "informed": 6782,
      "ultimately": 6783,
      "67": 6784,
      "immigrants": 6785,
      "fake": 6786,
      "basket": 6787,
      "Yemen": 6788,
      "cocaine": 6789,
      "sch": 6790,
      "Bang": 6791,
      "Bell": 6792,
      "digital": 6793,
      "annah": 6794,
      "incredibly": 6795,
      "cles": 6796,
      "ware": 6797,
      "prepare": 6798,
      "Jewish": 6799,
      "Thompson": 6800,
      "novel": 6801,
      "Colomb": 6802,
      "zen": 6803,
      "searching": 6804,
      "pushing": 6805,
      "Brother": 6806,
      "hide": 6807,
      "assistance": 6808,
      "ira": 6809,
      "vention": 6810,
      "fre": 6811,
      "Yesterday": 6812,
      "scared": 6813,
      "Pakistani": 6814,
      "minimum": 6815,
      "proposal": 6816,
      "testim": 6817,
      "Where": 6818,
      "iden": 6819,
      "attacking": 6820,
      "entirely": 6821,
      "jumped": 6822,
      "Neil": 6823,
      "ques": 6824,
      "permission": 6825,
      "smoking": 6826,
      "subsequ": 6827,
      "aco": 6828,
      "welfare": 6829,
      "radical": 6830,
      "ancient": 6831,
      "enjoying": 6832,
      "gi": 6833,
      "scar": 6834,
      "fro": 6835,
      "forecast": 6836,
      "Tro": 6837,
      "ministers": 6838,
      "payments": 6839,
      "Jamie": 6840,
      "Officials": 6841,
      "wreck": 6842,
      "Campbell": 6843,
      "ipal": 6844,
      "Fal": 6845,
      "Atlantic": 6846,
      "Call": 6847,
      "leads": 6848,
      "aska": 6849,
      "Hughes": 6850,
      "refere": 6851,
      "escaped": 6852,
      "Hull": 6853,
      "atherine": 6854,
      "alternative": 6855,
      "resto": 6856,
      "NAT": 6857,
      "purpose": 6858,
      "fined": 6859,
      "Pope": 6860,
      "shouldn": 6861,
      "proof": 6862,
      "aser": 6863,
      "ott": 6864,
      "Hur": 6865,
      "cleared": 6866,
      "itarian": 6867,
      "blind": 6868,
      "obtained": 6869,
      "dying": 6870,
      "smile": 6871,
      "EN": 6872,
      "plea": 6873,
      "intention": 6874,
      "preced": 6875,
      "Ri": 6876,
      "erup": 6877,
      "drunk": 6878,
      "involvement": 6879,
      "aval": 6880,
      "Sum": 6881,
      "Andre": 6882,
      "arriving": 6883,
      "recommend": 6884,
      "turns": 6885,
      "Lib": 6886,
      "pink": 6887,
      "cycle": 6888,
      "preparing": 6889,
      "Wim": 6890,
      "grat": 6891,
      "powers": 6892,
      "guaran": 6893,
      "tex": 6894,
      "petition": 6895,
      "Knight": 6896,
      "Rio": 6897,
      "astron": 6898,
      "intense": 6899,
      "ental": 6900,
      "adel": 6901,
      "horrific": 6902,
      "otic": 6903,
      "utter": 6904,
      "defending": 6905,
      "operate": 6906,
      "facilities": 6907,
      "Social": 6908,
      "Jessica": 6909,
      "Hernandez": 6910,
      "Greece": 6911,
      "stairs": 6912,
      "favorite": 6913,
      "Leeds": 6914,
      "robot": 6915,
      "lung": 6916,
      "mour": 6917,
      "pub": 6918,
      "grass": 6919,
      "racing": 6920,
      "trend": 6921,
      "decor": 6922,
      "marry": 6923,
      "fitness": 6924,
      "Polit": 6925,
      "metres": 6926,
      "elson": 6927,
      "Simp": 6928,
      "Essex": 6929,
      "judges": 6930,
      "naked": 6931,
      "Wright": 6932,
      "Sunder": 6933,
      "becomes": 6934,
      "Wind": 6935,
      "iance": 6936,
      "fruit": 6937,
      "Turkish": 6938,
      "matters": 6939,
      "Clar": 6940,
      "amoun": 6941,
      "Turn": 6942,
      "raid": 6943,
      "analysis": 6944,
      "Your": 6945,
      "investigated": 6946,
      "handle": 6947,
      "jihad": 6948,
      "OW": 6949,
      "awn": 6950,
      "irates": 6951,
      "Free": 6952,
      "Danny": 6953,
      "vies": 6954,
      "lifted": 6955,
      "til": 6956,
      "narrow": 6957,
      "afr": 6958,
      "izes": 6959,
      "Carl": 6960,
      "communications": 6961,
      "Stone": 6962,
      "brilliant": 6963,
      "drama": 6964,
      "Girl": 6965,
      "essions": 6966,
      "fees": 6967,
      "walls": 6968,
      "Rodrig": 6969,
      "sleeping": 6970,
      "68": 6971,
      "conclus": 6972,
      "structure": 6973,
      "dedicated": 6974,
      "interesting": 6975,
      "lined": 6976,
      "spell": 6977,
      "Sunderland": 6978,
      "62": 6979,
      "Tenn": 6980,
      "raped": 6981,
      "credi": 6982,
      "compensation": 6983,
      "birds": 6984,
      "accepting": 6985,
      "reaching": 6986,
      "Nich": 6987,
      "Hard": 6988,
      "umph": 6989,
      "shoulder": 6990,
      "detained": 6991,
      "iga": 6992,
      "commitment": 6993,
      "Perry": 6994,
      "overseas": 6995,
      "idespread": 6996,
      "burst": 6997,
      "amm": 6998,
      "jun": 6999,
      "Nigeria": 7000,
      "Hampshire": 7001,
      "chosen": 7002,
      "1998": 7003,
      "milk": 7004,
      "distress": 7005,
      "ocean": 7006,
      "Pop": 7007,
      "votes": 7008,
      "Tech": 7009,
      "bio": 7010,
      "thin": 7011,
      "cous": 7012,
      "Dave": 7013,
      "oth": 7014,
      "iven": 7015,
      "revel": 7016,
      "suspicion": 7017,
      "Pacific": 7018,
      "reporter": 7019,
      "consequences": 7020,
      "02": 7021,
      "conspiracy": 7022,
      "64": 7023,
      "ato": 7024,
      "Society": 7025,
      "posting": 7026,
      "documentary": 7027,
      "disappearance": 7028,
      "ideas": 7029,
      "successfully": 7030,
      "permanent": 7031,
      "apol": 7032,
      "reporting": 7033,
      "Jimmy": 7034,
      "thusi": 7035,
      "Hunt": 7036,
      "Qat": 7037,
      "stitutional": 7038,
      "vised": 7039,
      "Broad": 7040,
      "rally": 7041,
      "web": 7042,
      "drinks": 7043,
      "anywhere": 7044,
      "knocked": 7045,
      "vig": 7046,
      "packed": 7047,
      "iconic": 7048,
      "bird": 7049,
      "capacity": 7050,
      "gam": 7051,
      "Asian": 7052,
      "Metro": 7053,
      "PC": 7054,
      "ipping": 7055,
      "maximum": 7056,
      "specialist": 7057,
      "sweet": 7058,
      "enor": 7059,
      "Laura": 7060,
      "classic": 7061,
      "Zimmerman": 7062,
      "Dallas": 7063,
      "begins": 7064,
      "Gill": 7065,
      "implement": 7066,
      "kicked": 7067,
      "devastating": 7068,
      "bathroom": 7069,
      "racist": 7070,
      "NATO": 7071,
      "OS": 7072,
      "pound": 7073,
      "shift": 7074,
      "ause": 7075,
      "characters": 7076,
      "admits": 7077,
      "veget": 7078,
      "sector": 7079,
      "Hope": 7080,
      "afraid": 7081,
      "sac": 7082,
      "repair": 7083,
      "types": 7084,
      "aggressive": 7085,
      "Fil": 7086,
      "insists": 7087,
      "Commons": 7088,
      "gift": 7089,
      "ws": 7090,
      "adopted": 7091,
      "apply": 7092,
      "affiliate": 7093,
      "entit": 7094,
      "Swansea": 7095,
      "follows": 7096,
      "performing": 7097,
      "conce": 7098,
      "describe": 7099,
      "Clegg": 7100,
      "athon": 7101,
      "commentary": 7102,
      "bombing": 7103,
      "factory": 7104,
      "umber": 7105,
      "compete": 7106,
      "Tra": 7107,
      "dispute": 7108,
      "Dur": 7109,
      "opportunities": 7110,
      "pig": 7111,
      "Vill": 7112,
      "FC": 7113,
      "earn": 7114,
      "prob": 7115,
      "magn": 7116,
      "Conservative": 7117,
      "($": 7118,
      "azon": 7119,
      "solar": 7120,
      "Ukrainian": 7121,
      "frame": 7122,
      "Prosecutors": 7123,
      "Services": 7124,
      "Sel": 7125,
      "Abbott": 7126,
      "incent": 7127,
      "imate": 7128,
      "otherwise": 7129,
      "Brazilian": 7130,
      "Fair": 7131,
      "disappointed": 7132,
      "taxes": 7133,
      "phe": 7134,
      "abused": 7135,
      "Hillary": 7136,
      "concept": 7137,
      "extended": 7138,
      "teeth": 7139,
      "pleased": 7140,
      "gue": 7141,
      "casual": 7142,
      "Egyptian": 7143,
      "testimony": 7144,
      "Head": 7145,
      "preser": 7146,
      "Mas": 7147,
      "areness": 7148,
      "celebrities": 7149,
      "aven": 7150,
      "igned": 7151,
      "Tou": 7152,
      "windows": 7153,
      "archite": 7154,
      "Bad": 7155,
      "panic": 7156,
      "trapped": 7157,
      "orous": 7158,
      "01": 7159,
      "shed": 7160,
      "Holland": 7161,
      "Transport": 7162,
      "compar": 7163,
      "zo": 7164,
      "TH": 7165,
      "widespread": 7166,
      "Boy": 7167,
      "istrates": 7168,
      "NY": 7169,
      "presenter": 7170,
      "bledon": 7171,
      "listen": 7172,
      "tons": 7173,
      "Missouri": 7174,
      "Bristol": 7175,
      "Academy": 7176,
      "colate": 7177,
      "experiment": 7178,
      "withdraw": 7179,
      "advent": 7180,
      "properties": 7181,
      "km": 7182,
      "vin": 7183,
      "intend": 7184,
      "Oklah": 7185,
      "rural": 7186,
      "scores": 7187,
      "projects": 7188,
      "Wimbledon": 7189,
      "ingham": 7190,
      "firms": 7191,
      "shares": 7192,
      "sli": 7193,
      "ucky": 7194,
      "theft": 7195,
      "CBS": 7196,
      "walks": 7197,
      "taught": 7198,
      "crucial": 7199,
      "fires": 7200,
      "lists": 7201,
      "entr": 7202,
      "Blair": 7203,
      "Trafford": 7204,
      "inn": 7205,
      "profession": 7206,
      "enthusi": 7207,
      "attempting": 7208,
      "flowers": 7209,
      "judg": 7210,
      "childhood": 7211,
      "Prev": 7212,
      "breach": 7213,
      "kel": 7214,
      "Dub": 7215,
      "festival": 7216,
      "Pre": 7217,
      "Ocean": 7218,
      "thal": 7219,
      "defended": 7220,
      "irty": 7221,
      "Power": 7222,
      "notori": 7223,
      "Administr": 7224,
      "reveals": 7225,
      "platform": 7226,
      "offence": 7227,
      "strateg": 7228,
      "priority": 7229,
      "Mitche": 7230,
      "caf": 7231,
      "sung": 7232,
      "odes": 7233,
      "gor": 7234,
      "Justin": 7235,
      "caution": 7236,
      "Tar": 7237,
      "campus": 7238,
      "minster": 7239,
      "Edwards": 7240,
      "tip": 7241,
      "olas": 7242,
      "appearing": 7243,
      "demanded": 7244,
      "appointed": 7245,
      "fewer": 7246,
      "Robin": 7247,
      "joke": 7248,
      "cream": 7249,
      "bby": 7250,
      "hell": 7251,
      "advance": 7252,
      "registered": 7253,
      "officially": 7254,
      "existing": 7255,
      "Roll": 7256,
      "crying": 7257,
      "ema": 7258,
      "wounds": 7259,
      "Lt": 7260,
      "von": 7261,
      "abilities": 7262,
      "sixth": 7263,
      "Mitchell": 7264,
      "Amazon": 7265,
      "fold": 7266,
      "contrast": 7267,
      "AS": 7268,
      "Wild": 7269,
      "Food": 7270,
      "contained": 7271,
      "twi": 7272,
      "acknowledged": 7273,
      "temperature": 7274,
      "Having": 7275,
      "Davies": 7276,
      "eping": 7277,
      "idelines": 7278,
      "Oklahoma": 7279,
      "Pay": 7280,
      "ardo": 7281,
      "Several": 7282,
      "positions": 7283,
      "Major": 7284,
      "cow": 7285,
      "sugar": 7286,
      "Mohammed": 7287,
      "Celt": 7288,
      "describes": 7289,
      "multi": 7290,
      "posts": 7291,
      "approval": 7292,
      "attending": 7293,
      "shore": 7294,
      "poison": 7295,
      "demanding": 7296,
      "rescued": 7297,
      "Cop": 7298,
      "Happ": 7299,
      "travelled": 7300,
      "abdu": 7301,
      "Doctors": 7302,
      "updated": 7303,
      "sits": 7304,
      "Ale": 7305,
      "Has": 7306,
      "Photo": 7307,
      "Scient": 7308,
      "bull": 7309,
      "dete": 7310,
      "Sean": 7311,
      "95": 7312,
      "delighted": 7313,
      "gained": 7314,
      "atically": 7315,
      "bat": 7316,
      "rard": 7317,
      "promote": 7318,
      "Gi": 7319,
      "Bab": 7320,
      "temporary": 7321,
      "tonight": 7322,
      "prize": 7323,
      "enormous": 7324,
      "cart": 7325,
      "overnight": 7326,
      "unveiled": 7327,
      "depression": 7328,
      "mere": 7329,
      "beer": 7330,
      "copy": 7331,
      "reward": 7332,
      "Hy": 7333,
      "Station": 7334,
      "Deputy": 7335,
      "bris": 7336,
      "Stoke": 7337,
      "variety": 7338,
      "63": 7339,
      "bullet": 7340,
      "athletes": 7341,
      "Everyone": 7342,
      "orses": 7343,
      "Local": 7344,
      "Mod": 7345,
      "asks": 7346,
      "Carter": 7347,
      "extensive": 7348,
      "remind": 7349,
      "Cas": 7350,
      "sect": 7351,
      "Shaw": 7352,
      "checks": 7353,
      "Stewart": 7354,
      "Arm": 7355,
      "Southern": 7356,
      "Medic": 7357,
      "Marine": 7358,
      "bors": 7359,
      "posite": 7360,
      "eval": 7361,
      "911": 7362,
      "grandfather": 7363,
      "collected": 7364,
      "chef": 7365,
      "NASA": 7366,
      "Enter": 7367,
      "accompl": 7368,
      "spin": 7369,
      "oter": 7370,
      "excell": 7371,
      "battery": 7372,
      "pace": 7373,
      "rit": 7374,
      "icit": 7375,
      "haul": 7376,
      "factor": 7377,
      "exciting": 7378,
      "Edin": 7379,
      "convin": 7380,
      "Exper": 7381,
      "Nico": 7382,
      "sisters": 7383,
      "locations": 7384,
      "Live": 7385,
      "liance": 7386,
      "interviewed": 7387,
      "headquarters": 7388,
      "loud": 7389,
      "hired": 7390,
      "regarding": 7391,
      "phia": 7392,
      "closing": 7393,
      "uine": 7394,
      "Swit": 7395,
      "aler": 7396,
      "inois": 7397,
      "covering": 7398,
      "facts": 7399,
      "Bruce": 7400,
      "vet": 7401,
      "Fran": 7402,
      "Guard": 7403,
      "shelter": 7404,
      "puts": 7405,
      "rush": 7406,
      "spokesperson": 7407,
      "Osborne": 7408,
      "effectively": 7409,
      "Hodg": 7410,
      "Cardiff": 7411,
      "loves": 7412,
      "Anne": 7413,
      "taste": 7414,
      "iland": 7415,
      "loving": 7416,
      "oft": 7417,
      "blank": 7418,
      "arrests": 7419,
      "agu": 7420,
      "60s": 7421,
      "Nad": 7422,
      "Bloom": 7423,
      "awareness": 7424,
      "72": 7425,
      "cited": 7426,
      "patrol": 7427,
      "clinic": 7428,
      "mud": 7429,
      "Rodriguez": 7430,
      "demands": 7431,
      "Five": 7432,
      "adelphia": 7433,
      "convinced": 7434,
      "Si": 7435,
      "pel": 7436,
      "Disney": 7437,
      "rated": 7438,
      "Fur": 7439,
      "companied": 7440,
      "Jeremy": 7441,
      "Pers": 7442,
      "ateful": 7443,
      "Illinois": 7444,
      "PM": 7445,
      "Pas": 7446,
      "Chancellor": 7447,
      "links": 7448,
      "wan": 7449,
      "generally": 7450,
      "mart": 7451,
      "Lisa": 7452,
      "twe": 7453,
      "gow": 7454,
      "mansion": 7455,
      "Rev": 7456,
      "scape": 7457,
      "Philadelphia": 7458,
      "athle": 7459,
      "carbon": 7460,
      "Laden": 7461,
      "burning": 7462,
      "regional": 7463,
      "clients": 7464,
      "governments": 7465,
      "RO": 7466,
      "ifts": 7467,
      "Sandy": 7468,
      "Pot": 7469,
      "color": 7470,
      "1997": 7471,
      "cler": 7472,
      "improved": 7473,
      "tape": 7474,
      "Russell": 7475,
      "fel": 7476,
      "inez": 7477,
      "ugs": 7478,
      "aboard": 7479,
      "robbery": 7480,
      "punishment": 7481,
      "Cry": 7482,
      "Luke": 7483,
      "phan": 7484,
      "acks": 7485,
      "rot": 7486,
      "Nig": 7487,
      "asters": 7488,
      "indicated": 7489,
      "checked": 7490,
      "Amanda": 7491,
      "genuine": 7492,
      "restaurants": 7493,
      "resolution": 7494,
      "Lincol": 7495,
      "feeding": 7496,
      "inves": 7497,
      "Jean": 7498,
      "Vi": 7499,
      "writes": 7500,
      "dd": 7501,
      "independence": 7502,
      "entry": 7503,
      "guide": 7504,
      "Ye": 7505,
      "deals": 7506,
      "Tun": 7507,
      "loyal": 7508,
      "Kay": 7509,
      "etime": 7510,
      "imin": 7511,
      "Lincoln": 7512,
      "closure": 7513,
      "courage": 7514,
      "Ferr": 7515,
      "Glas": 7516,
      "finals": 7517,
      "succeed": 7518,
      "teenagers": 7519,
      "Gil": 7520,
      "bizarre": 7521,
      "promin": 7522,
      "typically": 7523,
      "shell": 7524,
      "Hus": 7525,
      "strange": 7526,
      "honour": 7527,
      "Gerrard": 7528,
      "territory": 7529,
      "Fre": 7530,
      "movies": 7531,
      "featuring": 7532,
      "ipe": 7533,
      "occasions": 7534,
      "dale": 7535,
      "Tam": 7536,
      "county": 7537,
      "execution": 7538,
      "cers": 7539,
      "athy": 7540,
      "Alab": 7541,
      "hanging": 7542,
      "NS": 7543,
      "apology": 7544,
      "desire": 7545,
      "Guardi": 7546,
      "application": 7547,
      "tap": 7548,
      "lean": 7549,
      "touched": 7550,
      "forcing": 7551,
      "infect": 7552,
      "Investigators": 7553,
      "***": 7554,
      "liked": 7555,
      "legit": 7556,
      "Brooklyn": 7557,
      "anybody": 7558,
      "organisation": 7559,
      "cticut": 7560,
      "attered": 7561,
      "CH": 7562,
      "regret": 7563,
      "funny": 7564,
      "screaming": 7565,
      "riding": 7566,
      "Connecticut": 7567,
      "clip": 7568,
      "Ward": 7569,
      "killings": 7570,
      "goods": 7571,
      "manage": 7572,
      "firing": 7573,
      "commander": 7574,
      "settlement": 7575,
      "69": 7576,
      "wet": 7577,
      "ando": 7578,
      "elsewhere": 7579,
      "burned": 7580,
      "crazy": 7581,
      "Marg": 7582,
      "represents": 7583,
      "itary": 7584,
      "accompanied": 7585,
      "Democrat": 7586,
      "requires": 7587,
      "Adams": 7588,
      "vy": 7589,
      "celebrated": 7590,
      "icing": 7591,
      "delivery": 7592,
      "dressing": 7593,
      "Brom": 7594,
      "Woods": 7595,
      "experiences": 7596,
      "environmental": 7597,
      "Rangers": 7598,
      "protected": 7599,
      "Marsh": 7600,
      "Martinez": 7601,
      "civilian": 7602,
      "cann": 7603,
      "stronger": 7604,
      "nomin": 7605,
      "nobody": 7606,
      "democracy": 7607,
      "ius": 7608,
      "78": 7609,
      "utions": 7610,
      "Did": 7611,
      "tories": 7612,
      "applied": 7613,
      "Leg": 7614,
      "dubbed": 7615,
      "Flo": 7616,
      "breathing": 7617,
      "papers": 7618,
      "drone": 7619,
      "cruel": 7620,
      "remarkable": 7621,
      "barely": 7622,
      "poverty": 7623,
      "exclusive": 7624,
      "grees": 7625,
      "Friends": 7626,
      "rie": 7627,
      "Heath": 7628,
      "Fel": 7629,
      "Board": 7630,
      "uff": 7631,
      "affairs": 7632,
      "Pear": 7633,
      "Prote": 7634,
      "acular": 7635,
      "manner": 7636,
      "rolled": 7637,
      "120": 7638,
      "ls": 7639,
      "infected": 7640,
      "therefore": 7641,
      "Philipp": 7642,
      "attached": 7643,
      "alia": 7644,
      "rists": 7645,
      "Hawai": 7646,
      "suggesting": 7647,
      "sam": 7648,
      "McCain": 7649,
      "GB": 7650,
      "Westminster": 7651,
      "Les": 7652,
      "traveling": 7653,
      "Seattle": 7654,
      "impressed": 7655,
      "itis": 7656,
      "smil": 7657,
      "package": 7658,
      "obvious": 7659,
      "criminals": 7660,
      "Aff": 7661,
      "verted": 7662,
      "aired": 7663,
      "ambassador": 7664,
      "warrant": 7665,
      "brown": 7666,
      "itage": 7667,
      "Thanks": 7668,
      "rehab": 7669,
      "mechan": 7670,
      "greet": 7671,
      "sounds": 7672,
      "degrees": 7673,
      "urses": 7674,
      "Tes": 7675,
      "Cat": 7676,
      "Munich": 7677,
      "icial": 7678,
      "iron": 7679,
      "advised": 7680,
      "missions": 7681,
      "Alabama": 7682,
      "resulted": 7683,
      "neur": 7684,
      "youngest": 7685,
      "Belgium": 7686,
      "detailed": 7687,
      "neither": 7688,
      "values": 7689,
      "liqu": 7690,
      "encouraged": 7691,
      "olly": 7692,
      "classes": 7693,
      "Cho": 7694,
      "enez": 7695,
      "yer": 7696,
      "Micro": 7697,
      "sensitive": 7698,
      "thick": 7699,
      "hase": 7700,
      "nett": 7701,
      "combined": 7702,
      "Fern": 7703,
      "Mali": 7704,
      "relationships": 7705,
      "tourist": 7706,
      "supplies": 7707,
      "counsel": 7708,
      "cedes": 7709,
      "brid": 7710,
      "oles": 7711,
      "racial": 7712,
      "attracted": 7713,
      "Mother": 7714,
      "brave": 7715,
      "throwing": 7716,
      "Mario": 7717,
      "1980s": 7718,
      "funded": 7719,
      "meetings": 7720,
      "summit": 7721,
      "teaching": 7722,
      "suits": 7723,
      "glasses": 7724,
      "neighbours": 7725,
      "Py": 7726,
      "organizations": 7727,
      "Charlot": 7728,
      "endum": 7729,
      "Cos": 7730,
      "Gro": 7731,
      "Row": 7732,
      "Pass": 7733,
      "opposed": 7734,
      "Special": 7735,
      "bombs": 7736,
      "hiding": 7737,
      "studio": 7738,
      "praised": 7739,
      "Bagh": 7740,
      "emails": 7741,
      "cam": 7742,
      "Sl": 7743,
      "Leban": 7744,
      "titles": 7745,
      "ordin": 7746,
      "Celtic": 7747,
      "RE": 7748,
      "cancell": 7749,
      "Cher": 7750,
      "Roger": 7751,
      "entering": 7752,
      "Utah": 7753,
      "aston": 7754,
      "condemned": 7755,
      "Duncan": 7756,
      "ethnic": 7757,
      "satellite": 7758,
      "owa": 7759,
      "voting": 7760,
      "represented": 7761,
      ".)": 7762,
      "visits": 7763,
      "?’": 7764,
      "upper": 7765,
      "slowly": 7766,
      "detectives": 7767,
      "Lane": 7768,
      "Brand": 7769,
      "eh": 7770,
      "confront": 7771,
      "cancel": 7772,
      "sheriff": 7773,
      "sentencing": 7774,
      "render": 7775,
      "basketball": 7776,
      "chi": 7777,
      "slo": 7778,
      "alert": 7779,
      "trait": 7780,
      "Portugal": 7781,
      "hits": 7782,
      "inappropriate": 7783,
      "cultural": 7784,
      "Aston": 7785,
      "referring": 7786,
      "counted": 7787,
      "drome": 7788,
      "Vis": 7789,
      "Hills": 7790,
      "cord": 7791,
      "Rebe": 7792,
      "Switzer": 7793,
      "Aar": 7794,
      "toll": 7795,
      "Gab": 7796,
      "explor": 7797,
      "Amy": 7798,
      "sustain": 7799,
      "Emer": 7800,
      "mixed": 7801,
      "fas": 7802,
      "outcome": 7803,
      "chocolate": 7804,
      "searched": 7805,
      "investigations": 7806,
      "renew": 7807,
      "fab": 7808,
      "ricane": 7809,
      "opponents": 7810,
      "Griff": 7811,
      "1990s": 7812,
      "enh": 7813,
      "Howard": 7814,
      "cricket": 7815,
      "Mos": 7816,
      "clock": 7817,
      "denies": 7818,
      "rugby": 7819,
      "interviews": 7820,
      "Jesus": 7821,
      "deem": 7822,
      "importance": 7823,
      "Crist": 7824,
      "reads": 7825,
      "Had": 7826,
      "producer": 7827,
      "Switzerland": 7828,
      "dependent": 7829,
      "stron": 7830,
      "Glasgow": 7831,
      "Susan": 7832,
      "Secret": 7833,
      "Contr": 7834,
      "loyd": 7835,
      "TA": 7836,
      "conven": 7837,
      "Collins": 7838,
      "Pent": 7839,
      "Ref": 7840,
      "strongly": 7841,
      "Bright": 7842,
      "motion": 7843,
      "meals": 7844,
      "veterans": 7845,
      "keeps": 7846,
      "politan": 7847,
      "harder": 7848,
      "advertising": 7849,
      "celebrating": 7850,
      "containing": 7851,
      "Education": 7852,
      "Thor": 7853,
      "divers": 7854,
      "suspicious": 7855,
      "deport": 7856,
      "spons": 7857,
      "Han": 7858,
      "Cuba": 7859,
      "univers": 7860,
      "mole": 7861,
      "vant": 7862,
      "enny": 7863,
      "Viet": 7864,
      "Hodgson": 7865,
      "ains": 7866,
      "1970s": 7867,
      "anticip": 7868,
      "vous": 7869,
      "cert": 7870,
      "substant": 7871,
      "races": 7872,
      "opposite": 7873,
      "glam": 7874,
      "stim": 7875,
      "Rem": 7876,
      "cuit": 7877,
      "Barbar": 7878,
      "GM": 7879,
      "technical": 7880,
      "winners": 7881,
      "moral": 7882,
      "Pres": 7883,
      "memories": 7884,
      "stroke": 7885,
      "referendum": 7886,
      "Rome": 7887,
      "apps": 7888,
      "manufactur": 7889,
      "spray": 7890,
      "competitive": 7891,
      "wealthy": 7892,
      "Administration": 7893,
      "graduate": 7894,
      "Fall": 7895,
      "airo": 7896,
      "fiel": 7897,
      "oldest": 7898,
      "taxi": 7899,
      "grabbed": 7900,
      "hin": 7901,
      "HIV": 7902,
      "fortunate": 7903,
      "Iowa": 7904,
      "Wis": 7905,
      "settled": 7906,
      "horses": 7907,
      "volunteers": 7908,
      "Ol": 7909,
      "usal": 7910,
      "procedures": 7911,
      "discrim": 7912,
      "azz": 7913,
      "ridic": 7914,
      "Snowden": 7915,
      "sporting": 7916,
      "cca": 7917,
      "plate": 7918,
      "persu": 7919,
      "Ky": 7920,
      "bacter": 7921,
      "stations": 7922,
      "artists": 7923,
      "diplomatic": 7924,
      "predicted": 7925,
      "Inde": 7926,
      "Thailand": 7927,
      "essing": 7928,
      "filming": 7929,
      "medication": 7930,
      "compound": 7931,
      "Cornwall": 7932,
      "acad": 7933,
      "colleague": 7934,
      "Notting": 7935,
      "onso": 7936,
      "voy": 7937,
      "berry": 7938,
      "peaceful": 7939,
      "evolution": 7940,
      "flooding": 7941,
      "Katie": 7942,
      "Baghdad": 7943,
      "Winter": 7944,
      "asion": 7945,
      "Ay": 7946,
      "inations": 7947,
      "crossing": 7948,
      "Business": 7949,
      "anonymous": 7950,
      "Sad": 7951,
      "aer": 7952,
      "religion": 7953,
      "stages": 7954,
      "backs": 7955,
      "fishing": 7956,
      "striking": 7957,
      "negotiations": 7958,
      "Bash": 7959,
      "wift": 7960,
      "aside": 7961,
      "materials": 7962,
      "Edinburgh": 7963,
      "shr": 7964,
      "Garcia": 7965,
      "Slo": 7966,
      "allies": 7967,
      "1996": 7968,
      "accusations": 7969,
      "seed": 7970,
      "reforms": 7971,
      "please": 7972,
      "Treas": 7973,
      "Jac": 7974,
      "mood": 7975,
      "ffield": 7976,
      "trophy": 7977,
      "industrial": 7978,
      "significantly": 7979,
      "bones": 7980,
      "Trans": 7981,
      "tens": 7982,
      "creation": 7983,
      "sized": 7984,
      "creative": 7985,
      "Lor": 7986,
      "hosts": 7987,
      "Low": 7988,
      "brings": 7989,
      "Cla": 7990,
      "ordeal": 7991,
      "Stuart": 7992,
      "idi": 7993,
      "blocked": 7994,
      "firefighters": 7995,
      "Kr": 7996,
      "otelli": 7997,
      "Night": 7998,
      "icate": 7999,
      "theat": 8000,
      "homeless": 8001,
      "eler": 8002,
      "witnessed": 8003,
      "hack": 8004,
      "tracks": 8005,
      "Cele": 8006,
      "Balotelli": 8007,
      "Ret": 8008,
      "Por": 8009,
      "teens": 8010,
      "speculation": 8011,
      "entitled": 8012,
      "aspect": 8013,
      "theory": 8014,
      "Gall": 8015,
      "nox": 8016,
      "Bron": 8017,
      "bitter": 8018,
      "Samsung": 8019,
      "handling": 8020,
      "electricity": 8021,
      "1994": 8022,
      "Soph": 8023,
      "shine": 8024,
      "discussed": 8025,
      "vowed": 8026,
      "Officer": 8027,
      "stig": 8028,
      "curren": 8029,
      "Dick": 8030,
      "........": 8031,
      "Derby": 8032,
      "deny": 8033,
      "ologists": 8034,
      "61": 8035,
      "Phillips": 8036,
      "monitoring": 8037,
      "collapse": 8038,
      "united": 8039,
      "expecting": 8040,
      "faster": 8041,
      "contains": 8042,
      "celebration": 8043,
      "posure": 8044,
      "answers": 8045,
      "constantly": 8046,
      "Raf": 8047,
      "pron": 8048,
      "factors": 8049,
      "directed": 8050,
      "waited": 8051,
      "BM": 8052,
      "roid": 8053,
      "sustained": 8054,
      "gunman": 8055,
      "requests": 8056,
      "Az": 8057,
      "Defence": 8058,
      "Gad": 8059,
      "representing": 8060,
      "falls": 8061,
      "McDonald": 8062,
      "prepar": 8063,
      "ups": 8064,
      "crews": 8065,
      "Dubai": 8066,
      "speaks": 8067,
      "obl": 8068,
      "Sk": 8069,
      "orse": 8070,
      "ridge": 8071,
      "referee": 8072,
      "Hot": 8073,
      "marketing": 8074,
      "Sheffield": 8075,
      "offices": 8076,
      "bust": 8077,
      "convict": 8078,
      "sink": 8079,
      "purchase": 8080,
      "olph": 8081,
      "Sudan": 8082,
      "lake": 8083,
      "trips": 8084,
      "shame": 8085,
      "Kenya": 8086,
      "ramp": 8087,
      "Beckham": 8088,
      "Ul": 8089,
      "ilst": 8090,
      "therapy": 8091,
      "amo": 8092,
      "bru": 8093,
      "Gib": 8094,
      "gt": 8095,
      "aya": 8096,
      "cheek": 8097,
      "argue": 8098,
      "chicken": 8099,
      "ximately": 8100,
      "pour": 8101,
      "crowds": 8102,
      "partnership": 8103,
      "toler": 8104,
      "AN": 8105,
      "Spring": 8106,
      "Others": 8107,
      "astro": 8108,
      "indict": 8109,
      "personally": 8110,
      "chat": 8111,
      "gear": 8112,
      "transferred": 8113,
      "inspiration": 8114,
      ".-": 8115,
      "debris": 8116,
      "branch": 8117,
      "forever": 8118,
      "Fund": 8119,
      "eleph": 8120,
      "equival": 8121,
      "household": 8122,
      "assaulted": 8123,
      "onna": 8124,
      "rett": 8125,
      "estimates": 8126,
      "Wit": 8127,
      "ourselves": 8128,
      "CO": 8129,
      "begun": 8130,
      "Flight": 8131,
      "channel": 8132,
      "Beat": 8133,
      "cruise": 8134,
      "Nelson": 8135,
      "chap": 8136,
      "amounts": 8137,
      "hunting": 8138,
      "achieved": 8139,
      "pros": 8140,
      "Castro": 8141,
      "breakfast": 8142,
      "comedy": 8143,
      "moun": 8144,
      "mini": 8145,
      "Cu": 8146,
      "QPR": 8147,
      "Around": 8148,
      "actual": 8149,
      "Authority": 8150,
      "Margaret": 8151,
      "Aaron": 8152,
      "towns": 8153,
      "payment": 8154,
      "specifically": 8155,
      "Commissioner": 8156,
      "chez": 8157,
      "Hamas": 8158,
      "frag": 8159,
      "march": 8160,
      "Reid": 8161,
      "studying": 8162,
      "extent": 8163,
      "confron": 8164,
      "communication": 8165,
      "Hit": 8166,
      "edition": 8167,
      "oke": 8168,
      "ighth": 8169,
      "drawing": 8170,
      "Swiss": 8171,
      "oms": 8172,
      "Brend": 8173,
      "sufficient": 8174,
      "Chile": 8175,
      "lawmakers": 8176,
      "Maryland": 8177,
      "rice": 8178,
      "ighter": 8179,
      "migrants": 8180,
      "mystery": 8181,
      "Scientists": 8182,
      "Armstrong": 8183,
      "!!": 8184,
      "lee": 8185,
      "units": 8186,
      "Vol": 8187,
      "Arabia": 8188,
      "Pictured": 8189,
      "Mercedes": 8190,
      "Greek": 8191,
      "aims": 8192,
      "paint": 8193,
      "Ku": 8194,
      "bean": 8195,
      "Rand": 8196,
      "optim": 8197,
      "Barbara": 8198,
      "Sgt": 8199,
      "toilet": 8200,
      "error": 8201,
      "everywhere": 8202,
      "Maybe": 8203,
      "organis": 8204,
      "Civil": 8205,
      "enda": 8206,
      "roughly": 8207,
      "Warren": 8208,
      "stamp": 8209,
      "spectacular": 8210,
      "Helen": 8211,
      "ora": 8212,
      "disabled": 8213,
      "humanitarian": 8214,
      "computers": 8215,
      "ITV": 8216,
      "aide": 8217,
      "reception": 8218,
      "Crystal": 8219,
      "aved": 8220,
      "Barcl": 8221,
      "skull": 8222,
      "Berg": 8223,
      "frequently": 8224,
      "Bond": 8225,
      "cheap": 8226,
      "oming": 8227,
      "Mandela": 8228,
      "networks": 8229,
      "Pis": 8230,
      "dule": 8231,
      "roit": 8232,
      "Safety": 8233,
      "popularity": 8234,
      "ration": 8235,
      "hotels": 8236,
      "outfit": 8237,
      "branded": 8238,
      "representative": 8239,
      "heim": 8240,
      "icks": 8241,
      "awards": 8242,
      "attorneys": 8243,
      "switch": 8244,
      "Charlotte": 8245,
      "secut": 8246,
      "tired": 8247,
      "Hend": 8248,
      "SU": 8249,
      "kit": 8250,
      "activist": 8251,
      "Stat": 8252,
      "typical": 8253,
      "1995": 8254,
      "brary": 8255,
      "strip": 8256,
      "fortune": 8257,
      "Rachel": 8258,
      "escal": 8259,
      "Microsoft": 8260,
      "fet": 8261,
      "ami": 8262,
      "avo": 8263,
      "Ker": 8264,
      "pulling": 8265,
      "proceedings": 8266,
      "QC": 8267,
      "cats": 8268,
      "uations": 8269,
      "emotion": 8270,
      "uniform": 8271,
      "citing": 8272,
      "consistent": 8273,
      "Juan": 8274,
      "dial": 8275,
      "Morning": 8276,
      "regulations": 8277,
      "retirement": 8278,
      "Govern": 8279,
      "transp": 8280,
      "selection": 8281,
      "Sanchez": 8282,
      "remin": 8283,
      "constitutional": 8284,
      "disgust": 8285,
      "twin": 8286,
      "jurors": 8287,
      "Atlet": 8288,
      "flow": 8289,
      "medicine": 8290,
      "keys": 8291,
      "zero": 8292,
      "corporate": 8293,
      "greg": 8294,
      "5million": 8295,
      "traveled": 8296,
      "flames": 8297,
      "lovely": 8298,
      "Opin": 8299,
      "fame": 8300,
      "inner": 8301,
      "Berlin": 8302,
      "objects": 8303,
      "wage": 8304,
      "assass": 8305,
      "nurses": 8306,
      "hers": 8307,
      "equivalent": 8308,
      "pages": 8309,
      "Sovi": 8310,
      "Welsh": 8311,
      "fields": 8312,
      "axy": 8313,
      "scientific": 8314,
      "division": 8315,
      "tren": 8316,
      "Cabinet": 8317,
      "nest": 8318,
      "mainly": 8319,
      "songs": 8320,
      "Thank": 8321,
      "headlines": 8322,
      "ministry": 8323,
      "Grant": 8324,
      "diabet": 8325,
      "Clarke": 8326,
      "Mount": 8327,
      "attitude": 8328,
      "fairly": 8329,
      "Hud": 8330,
      "cession": 8331,
      "Detroit": 8332,
      "viewed": 8333,
      "absence": 8334,
      "eneath": 8335,
      "portray": 8336,
      "mund": 8337,
      "asty": 8338,
      "holes": 8339,
      "Rice": 8340,
      "afterwards": 8341,
      "Researchers": 8342,
      "gage": 8343,
      "Book": 8344,
      "Golden": 8345,
      "Domin": 8346,
      "umes": 8347,
      "erie": 8348,
      "kilome": 8349,
      "imposed": 8350,
      "odds": 8351,
      "lessons": 8352,
      "urgent": 8353,
      "Malaysia": 8354,
      "painted": 8355,
      "qualified": 8356,
      "Captain": 8357,
      "Experts": 8358,
      "nervous": 8359,
      "hens": 8360,
      "bosses": 8361,
      "horror": 8362,
      "grateful": 8363,
      "boats": 8364,
      "McL": 8365,
      "mess": 8366,
      "cloud": 8367,
      "tel": 8368,
      "prohib": 8369,
      "addressed": 8370,
      "belt": 8371,
      "managing": 8372,
      "smail": 8373,
      "Mountain": 8374,
      "dancing": 8375,
      "Tok": 8376,
      "reference": 8377,
      "kers": 8378,
      "pocket": 8379,
      "restrictions": 8380,
      "abortion": 8381,
      "discussion": 8382,
      "locals": 8383,
      "escort": 8384,
      "Atletico": 8385,
      "Class": 8386,
      "missile": 8387,
      "painful": 8388,
      "select": 8389,
      "Pho": 8390,
      "rat": 8391,
      "Ban": 8392,
      "thetic": 8393,
      "88": 8394,
      "todd": 8395,
      "conced": 8396,
      "Isa": 8397,
      "Wol": 8398,
      "astru": 8399,
      "detention": 8400,
      "physically": 8401,
      "IM": 8402,
      "bark": 8403,
      "bread": 8404,
      "Sn": 8405,
      "defensive": 8406,
      "Devon": 8407,
      "garage": 8408,
      "telephone": 8409,
      "Downing": 8410,
      "Poland": 8411,
      "imprison": 8412,
      "marine": 8413,
      "welcomed": 8414,
      "pilots": 8415,
      "twins": 8416,
      "Eastern": 8417,
      "Rub": 8418,
      "foods": 8419,
      "personality": 8420,
      "lers": 8421,
      "noise": 8422,
      "supermarket": 8423,
      "smartphone": 8424,
      "feelings": 8425,
      "rounds": 8426,
      "fli": 8427,
      "ullah": 8428,
      "Bos": 8429,
      "Nottingham": 8430,
      "ippi": 8431,
      "fract": 8432,
      "stealing": 8433,
      "combination": 8434,
      "ima": 8435,
      "regon": 8436,
      "rarely": 8437,
      "delayed": 8438,
      "Bailey": 8439,
      "tin": 8440,
      "Nazi": 8441,
      "Pentagon": 8442,
      "discrimination": 8443,
      "safely": 8444,
      "Opinion": 8445,
      "vard": 8446,
      "crossed": 8447,
      "nights": 8448,
      "picking": 8449,
      "Mack": 8450,
      "cycling": 8451,
      "appointment": 8452,
      "isan": 8453,
      "somewhere": 8454,
      "igation": 8455,
      "Na": 8456,
      "realized": 8457,
      "Keith": 8458,
      "Emily": 8459,
      "flash": 8460,
      "perfectly": 8461,
      "Oregon": 8462,
      "torture": 8463,
      "alarm": 8464,
      "ambit": 8465,
      "resigned": 8466,
      "stretch": 8467,
      "overwhelming": 8468,
      "peak": 8469,
      "websites": 8470,
      "leep": 8471,
      "rocks": 8472,
      "anded": 8473,
      "reven": 8474,
      "trains": 8475,
      "terrif": 8476,
      "holidays": 8477,
      "proto": 8478,
      "Bull": 8479,
      "approximately": 8480,
      "emble": 8481,
      "smashed": 8482,
      "Surrey": 8483,
      "viv": 8484,
      "reasonable": 8485,
      "TS": 8486,
      "uct": 8487,
      "stole": 8488,
      "Midlands": 8489,
      "Detective": 8490,
      "warnings": 8491,
      "earthquake": 8492,
      "indeed": 8493,
      "astructure": 8494,
      "Eve": 8495,
      "diam": 8496,
      "Islamist": 8497,
      "Vo": 8498,
      "knock": 8499,
      "sail": 8500,
      "adviser": 8501,
      "mentioned": 8502,
      "throat": 8503,
      "Box": 8504,
      "Ton": 8505,
      "Liz": 8506,
      "grace": 8507,
      "fundament": 8508,
      "eggs": 8509,
      "paramed": 8510,
      "promising": 8511,
      "exhibition": 8512,
      "Hawaii": 8513,
      "Biden": 8514,
      "\".": 8515,
      "oting": 8516,
      "probe": 8517,
      "flown": 8518,
      "Lawrence": 8519,
      "militant": 8520,
      "nightm": 8521,
      "operated": 8522,
      "balls": 8523,
      "analyst": 8524,
      "coroner": 8525,
      "Mississ": 8526,
      "redi": 8527,
      "targeting": 8528,
      "taxpayers": 8529,
      "rec": 8530,
      "uters": 8531,
      "rolling": 8532,
      "deployed": 8533,
      "Tennes": 8534,
      "iatric": 8535,
      "beneath": 8536,
      "polls": 8537,
      "entertainment": 8538,
      "Cir": 8539,
      "eor": 8540,
      "sures": 8541,
      "transplant": 8542,
      "Louisiana": 8543,
      "quoted": 8544,
      "excellent": 8545,
      "Jong": 8546,
      "ING": 8547,
      "riots": 8548,
      "Short": 8549,
      "shadow": 8550,
      "minority": 8551,
      "fitted": 8552,
      "PA": 8553,
      "bottles": 8554,
      "carefully": 8555,
      "Ted": 8556,
      "blaze": 8557,
      "Ven": 8558,
      "Plan": 8559,
      "enemy": 8560,
      "Later": 8561,
      "Staff": 8562,
      "neighbors": 8563,
      "survival": 8564,
      "Div": 8565,
      "advanced": 8566,
      "bullying": 8567,
      "Sony": 8568,
      "mature": 8569,
      "treating": 8570,
      "encer": 8571,
      "backing": 8572,
      "Sweden": 8573,
      "answered": 8574,
      "Mississippi": 8575,
      "ec": 8576,
      "smell": 8577,
      "fright": 8578,
      "attr": 8579,
      "Minnes": 8580,
      "silence": 8581,
      "moto": 8582,
      "controls": 8583,
      "fier": 8584,
      "deemed": 8585,
      "Kansas": 8586,
      "Serge": 8587,
      "salary": 8588,
      "eu": 8589,
      "ios": 8590,
      "jection": 8591,
      "glad": 8592,
      "exit": 8593,
      "Latin": 8594,
      "Fro": 8595,
      "fits": 8596,
      "nd": 8597,
      "recommended": 8598,
      "Silver": 8599,
      "Lion": 8600,
      "entrance": 8601,
      "Ald": 8602,
      "wildlife": 8603,
      "ulture": 8604,
      "coat": 8605,
      "Sub": 8606,
      "challenging": 8607,
      "RC": 8608,
      "Forest": 8609,
      "Inc": 8610,
      "tout": 8611,
      "Vide": 8612,
      "ulty": 8613,
      "Qatar": 8614,
      "Austin": 8615,
      "parked": 8616,
      "EC": 8617,
      "Chan": 8618,
      "ballo": 8619,
      "Ry": 8620,
      "idency": 8621,
      "Adri": 8622,
      "usive": 8623,
      "destination": 8624,
      "mistakes": 8625,
      "Minnesota": 8626,
      "Bri": 8627,
      "lifetime": 8628,
      "consultant": 8629,
      "jacket": 8630,
      "assage": 8631,
      "pets": 8632,
      "rensic": 8633,
      "performances": 8634,
      "powered": 8635,
      "Murphy": 8636,
      "instance": 8637,
      "businessman": 8638,
      "tent": 8639,
      "breaks": 8640,
      "ien": 8641,
      "resem": 8642,
      "forth": 8643,
      "Louise": 8644,
      "acing": 8645,
      "Oliver": 8646,
      "ierra": 8647,
      "Fest": 8648,
      "concert": 8649,
      "folk": 8650,
      "esity": 8651,
      "bears": 8652,
      "Pere": 8653,
      "realise": 8654,
      "Father": 8655,
      "Sometimes": 8656,
      "photographed": 8657,
      "elite": 8658,
      "deserve": 8659,
      "Indonesia": 8660,
      "footballer": 8661,
      "rical": 8662,
      "unemployment": 8663,
      "managers": 8664,
      "encouraging": 8665,
      "tos": 8666,
      "uncle": 8667,
      "pic": 8668,
      "Stock": 8669,
      "crete": 8670,
      "Form": 8671,
      "Barry": 8672,
      "Memor": 8673,
      "Celebr": 8674,
      "wrapped": 8675,
      "Somalia": 8676,
      "midfield": 8677,
      "investors": 8678,
      "inmates": 8679,
      "Berry": 8680,
      "donations": 8681,
      "Savile": 8682,
      "Ta": 8683,
      "Wy": 8684,
      "xture": 8685,
      "Barclays": 8686,
      "inf": 8687,
      "Thatcher": 8688,
      "regions": 8689,
      "Tsar": 8690,
      "baseball": 8691,
      "mm": 8692,
      "Kingdom": 8693,
      "Key": 8694,
      "ulations": 8695,
      "roles": 8696,
      "subs": 8697,
      "valuable": 8698,
      "Ful": 8699,
      "Sul": 8700,
      "hosted": 8701,
      "consumer": 8702,
      "SC": 8703,
      "itable": 8704,
      "Soviet": 8705,
      "survivors": 8706,
      "mont": 8707,
      "Alaska": 8708,
      "Unfortunately": 8709,
      "ician": 8710,
      "leton": 8711,
      "guess": 8712,
      "booked": 8713,
      "Pistori": 8714,
      "stan": 8715,
      "fault": 8716,
      "tools": 8717,
      "criticized": 8718,
      "repre": 8719,
      "intervention": 8720,
      "Tennessee": 8721,
      "recovering": 8722,
      "practices": 8723,
      "abis": 8724,
      "cuff": 8725,
      "Ark": 8726,
      "tweets": 8727,
      "issa": 8728,
      "Columb": 8729,
      "EW": 8730,
      "Light": 8731,
      "finds": 8732,
      "cano": 8733,
      "Spurs": 8734,
      "adequ": 8735,
      "stunned": 8736,
      "studied": 8737,
      "license": 8738,
      "sured": 8739,
      "fierce": 8740,
      "NBA": 8741,
      "Nigel": 8742,
      "iture": 8743,
      "boxes": 8744,
      "Nether": 8745,
      "infrastructure": 8746,
      "vens": 8747,
      "probation": 8748,
      "1992": 8749,
      "toug": 8750,
      "Project": 8751,
      "departure": 8752,
      "Buckingham": 8753,
      "Made": 8754,
      "Case": 8755,
      "Ag": 8756,
      "Pistorius": 8757,
      "kidnapping": 8758,
      "spots": 8759,
      "questioning": 8760,
      "uay": 8761,
      "Vlad": 8762,
      "assem": 8763,
      "residence": 8764,
      "emphas": 8765,
      "cheer": 8766,
      "Obam": 8767,
      "congressional": 8768,
      "Such": 8769,
      "tensions": 8770,
      "illegally": 8771,
      "Tokyo": 8772,
      "50s": 8773,
      "Colombia": 8774,
      "cousin": 8775,
      "lod": 8776,
      "depict": 8777,
      "Anim": 8778,
      "phil": 8779,
      "engineer": 8780,
      "lowest": 8781,
      "furn": 8782,
      "Avenue": 8783,
      "ths": 8784,
      "decline": 8785,
      "III": 8786,
      "phenomen": 8787,
      "aggrav": 8788,
      "Dean": 8789,
      "lover": 8790,
      "desc": 8791,
      "Treasury": 8792,
      "politician": 8793,
      "Agu": 8794,
      "Emp": 8795,
      "ingredi": 8796,
      "whist": 8797,
      "institut": 8798,
      "ikh": 8799,
      "Wa": 8800,
      "FOR": 8801,
      "protecting": 8802,
      "dropping": 8803,
      "licence": 8804,
      "Venez": 8805,
      "oxy": 8806,
      "Mull": 8807,
      "singing": 8808,
      "Vice": 8809,
      "designs": 8810,
      "71": 8811,
      "Urug": 8812,
      "assets": 8813,
      "Perhaps": 8814,
      "surgeon": 8815,
      "uan": 8816,
      "1993": 8817,
      "tes": 8818,
      "fles": 8819,
      "Sierra": 8820,
      "pending": 8821,
      "prol": 8822,
      "cake": 8823,
      "yce": 8824,
      "executed": 8825,
      "Commun": 8826,
      "Uruguay": 8827,
      "uncertain": 8828,
      "yach": 8829,
      "prominent": 8830,
      "nity": 8831,
      "carries": 8832,
      "Ahmed": 8833,
      "gathering": 8834,
      "explan": 8835,
      "www": 8836,
      "relevant": 8837,
      "Ukip": 8838,
      "pu": 8839,
      "dominated": 8840,
      "foundation": 8841,
      "Britons": 8842,
      "electronic": 8843,
      "Ca": 8844,
      "legacy": 8845,
      "elig": 8846,
      "Never": 8847,
      "griev": 8848,
      "dock": 8849,
      "treatments": 8850,
      "Roma": 8851,
      "recruit": 8852,
      "ading": 8853,
      "forest": 8854,
      "Venezuel": 8855,
      "hacking": 8856,
      "shirts": 8857,
      "collision": 8858,
      "hammer": 8859,
      "glas": 8860,
      "literally": 8861,
      "Happy": 8862,
      "hafi": 8863,
      "ati": 8864,
      "stup": 8865,
      "selected": 8866,
      "ultimate": 8867,
      "Hon": 8868,
      "reserved": 8869,
      "jan": 8870,
      "sels": 8871,
      "Holmes": 8872,
      "producing": 8873,
      "increases": 8874,
      "Heart": 8875,
      "Gadhafi": 8876,
      "confessed": 8877,
      "guidelines": 8878,
      "79": 8879,
      "intr": 8880,
      "involves": 8881,
      "Beng": 8882,
      "lb": 8883,
      "tan": 8884,
      "proportion": 8885,
      "vs": 8886,
      "Libyan": 8887,
      "lane": 8888,
      "thorough": 8889,
      "Diana": 8890,
      "thir": 8891,
      "cyc": 8892,
      "seasons": 8893,
      "recon": 8894,
      "exposure": 8895,
      "clashes": 8896,
      "soil": 8897,
      "Inspe": 8898,
      "blings": 8899,
      "separated": 8900,
      "Gray": 8901,
      "necessarily": 8902,
      "Darren": 8903,
      "viral": 8904,
      "dreams": 8905,
      "grey": 8906,
      "tattoo": 8907,
      "maintained": 8908,
      "Hundred": 8909,
      "vigil": 8910,
      "CS": 8911,
      "Powell": 8912,
      "pursue": 8913,
      "compre": 8914,
      "azed": 8915,
      "youngsters": 8916,
      "uties": 8917,
      "Without": 8918,
      "ignored": 8919,
      "Lucy": 8920,
      "acey": 8921,
      "cheese": 8922,
      "calcul": 8923,
      "Netherlands": 8924,
      "angered": 8925,
      "muscle": 8926,
      "Douglas": 8927,
      "upcoming": 8928,
      "remembered": 8929,
      "profits": 8930,
      "purchased": 8931,
      "embassy": 8932,
      "Rebecca": 8933,
      "angel": 8934,
      "Spencer": 8935,
      "appeals": 8936,
      "anymore": 8937,
      "cliff": 8938,
      "chaos": 8939,
      "blocks": 8940,
      "Next": 8941,
      "Gon": 8942,
      "litter": 8943,
      "secured": 8944,
      "stressed": 8945,
      "Shel": 8946,
      "Arth": 8947,
      "nan": 8948,
      "unexpected": 8949,
      "collabor": 8950,
      "Haz": 8951,
      "pronounced": 8952,
      "Knox": 8953,
      "haw": 8954,
      "appl": 8955,
      "restr": 8956,
      "offenders": 8957,
      "triumph": 8958,
      "swing": 8959,
      "Antonio": 8960,
      "Network": 8961,
      "Pris": 8962,
      "element": 8963,
      "organised": 8964,
      "raged": 8965,
      "Federer": 8966,
      "urban": 8967,
      "Moyes": 8968,
      "veland": 8969,
      "ills": 8970,
      "meanwhile": 8971,
      "defendants": 8972,
      "partisan": 8973,
      "column": 8974,
      "accurate": 8975,
      "Metropolitan": 8976,
      "aken": 8977,
      "engagement": 8978,
      "leans": 8979,
      "sentences": 8980,
      "describing": 8981,
      "Burnley": 8982,
      "iques": 8983,
      "transl": 8984,
      "Bowl": 8985,
      "leaked": 8986,
      "Magistrates": 8987,
      "Sussex": 8988,
      "Kentucky": 8989,
      "opponent": 8990,
      "Appe": 8991,
      "diagnosis": 8992,
      "Dog": 8993,
      "Krist": 8994,
      "theme": 8995,
      "hob": 8996,
      "proposals": 8997,
      "rein": 8998,
      "loose": 8999,
      "Android": 9000,
      "eva": 9001,
      "unacceptable": 9002,
      "suburb": 9003,
      "harassment": 9004,
      "McIl": 9005,
      "Wr": 9006,
      "1990": 9007,
      "AP": 9008,
      "74": 9009,
      "Kyle": 9010,
      "ums": 9011,
      "Hannah": 9012,
      "Bah": 9013,
      "rand": 9014,
      "donated": 9015,
      "extend": 9016,
      "Bradley": 9017,
      "Simpson": 9018,
      "battling": 9019,
      "wheelchair": 9020,
      "agne": 9021,
      "angle": 9022,
      "concrete": 9023,
      "Telegraph": 9024,
      "Video": 9025,
      "Cer": 9026,
      "limits": 9027,
      "73": 9028,
      "admitting": 9029,
      "30pm": 9030,
      "hearts": 9031,
      "aga": 9032,
      "Denver": 9033,
      "Paren": 9034,
      "llers": 9035,
      "kidney": 9036,
      "View": 9037,
      "haust": 9038,
      "Baker": 9039,
      "pure": 9040,
      "requested": 9041,
      "Manuel": 9042,
      "trafficking": 9043,
      "isolated": 9044,
      "swell": 9045,
      "revenue": 9046,
      "aftermath": 9047,
      "Julie": 9048,
      "elements": 9049,
      "bite": 9050,
      "Affairs": 9051,
      "lett": 9052,
      "shake": 9053,
      "letting": 9054,
      "dollar": 9055,
      "oral": 9056,
      "Somer": 9057,
      "resulting": 9058,
      "participants": 9059,
      "Brendan": 9060,
      "nav": 9061,
      "desk": 9062,
      "Crow": 9063,
      "pip": 9064,
      "apore": 9065,
      "ucker": 9066,
      "dragged": 9067,
      "Jun": 9068,
      "vit": 9069,
      "Cleveland": 9070,
      "weig": 9071,
      "abe": 9072,
      "ione": 9073,
      "pride": 9074,
      "Lauren": 9075,
      "seventh": 9076,
      "ucing": 9077,
      "stopping": 9078,
      "Marco": 9079,
      "trading": 9080,
      "Memorial": 9081,
      "returns": 9082,
      "impression": 9083,
      "wanting": 9084,
      "install": 9085,
      "Tsarna": 9086,
      "passes": 9087,
      "torial": 9088,
      "Edi": 9089,
      "Crit": 9090,
      "Sportsmail": 9091,
      "destruction": 9092,
      "Singapore": 9093,
      "Pier": 9094,
      "athlete": 9095,
      "nationwide": 9096,
      "demonstrators": 9097,
      "prayers": 9098,
      "Bat": 9099,
      "usa": 9100,
      "Boeing": 9101,
      "stagger": 9102,
      "Tesco": 9103,
      "lessly": 9104,
      "Parker": 9105,
      "youngster": 9106,
      "Support": 9107,
      "cker": 9108,
      "snap": 9109,
      "Gh": 9110,
      "Hundreds": 9111,
      "Nancy": 9112,
      "boun": 9113,
      "agenda": 9114,
      "3D": 9115,
      "pical": 9116,
      "End": 9117,
      "campaigns": 9118,
      "toxic": 9119,
      "toy": 9120,
      "ranked": 9121,
      "Neigh": 9122,
      "assessment": 9123,
      "distinct": 9124,
      "Awards": 9125,
      "Emergency": 9126,
      "aux": 9127,
      "ixon": 9128,
      "bik": 9129,
      "visions": 9130,
      "machines": 9131,
      "76": 9132,
      "Cus": 9133,
      "GA": 9134,
      "shoppers": 9135,
      "Indiana": 9136,
      "Seven": 9137,
      "architect": 9138,
      "chant": 9139,
      "frozen": 9140,
      "implic": 9141,
      "rd": 9142,
      "pez": 9143,
      "fence": 9144,
      "mi": 9145,
      "courtroom": 9146,
      "Corpor": 9147,
      "imir": 9148,
      "diabetes": 9149,
      "1million": 9150,
      "Wolf": 9151,
      "Commonwealth": 9152,
      "Tan": 9153,
      "Pu": 9154,
      "refugees": 9155,
      "swept": 9156,
      "cable": 9157,
      "climb": 9158,
      "genetic": 9159,
      "Assist": 9160,
      "900": 9161,
      "Claire": 9162,
      "Lan": 9163,
      "1960s": 9164,
      "Vietnam": 9165,
      "Please": 9166,
      "adjust": 9167,
      "championship": 9168,
      "beloved": 9169,
      "Ivan": 9170,
      "asted": 9171,
      "ahl": 9172,
      "beck": 9173,
      "rear": 9174,
      "Hollande": 9175,
      "wider": 9176,
      "asyl": 9177,
      "soc": 9178,
      "20s": 9179,
      "Ney": 9180,
      "McIlroy": 9181,
      "murders": 9182,
      "Student": 9183,
      "oon": 9184,
      "dev": 9185,
      "Nasa": 9186,
      "Dream": 9187,
      "Bish": 9188,
      "ppers": 9189,
      "Shad": 9190,
      "transition": 9191,
      "polar": 9192,
      "Serg": 9193,
      "Kurdish": 9194,
      "precedented": 9195,
      "boarding": 9196,
      "sacrif": 9197,
      "Bun": 9198,
      "priest": 9199,
      "Turner": 9200,
      "Techn": 9201,
      "echo": 9202,
      "igent": 9203,
      "handful": 9204,
      "shaped": 9205,
      "dose": 9206,
      "slim": 9207,
      "desert": 9208,
      "realize": 9209,
      "principal": 9210,
      "dles": 9211,
      "sued": 9212,
      "constit": 9213,
      "Shi": 9214,
      "outstanding": 9215,
      "eter": 9216,
      "airports": 9217,
      "poster": 9218,
      "bian": 9219,
      "Brus": 9220,
      "Fle": 9221,
      "Travel": 9222,
      "stupid": 9223,
      "urge": 9224,
      "atican": 9225,
      "smiling": 9226,
      "champ": 9227,
      "weighed": 9228,
      "smugg": 9229,
      "promises": 9230,
      "engage": 9231,
      "Ronald": 9232,
      "smiles": 9233,
      "schedule": 9234,
      "cannabis": 9235,
      "careful": 9236,
      "soccer": 9237,
      "overcome": 9238,
      "vacation": 9239,
      "fu": 9240,
      "Arthur": 9241,
      "Environ": 9242,
      "fate": 9243,
      "Tories": 9244,
      "scrut": 9245,
      "Bris": 9246,
      "osex": 9247,
      "zoo": 9248,
      "dealt": 9249,
      "Look": 9250,
      "RAF": 9251,
      "trem": 9252,
      "Science": 9253,
      "Stafford": 9254,
      "dele": 9255,
      "eved": 9256,
      "underground": 9257,
      "hoo": 9258,
      "Pelle": 9259,
      "substance": 9260,
      "Vatican": 9261,
      "ideal": 9262,
      "Bou": 9263,
      "lbs": 9264,
      "sting": 9265,
      "revealing": 9266,
      "Catherine": 9267,
      "passport": 9268,
      "oping": 9269,
      "finishing": 9270,
      "entrepre": 9271,
      "unconscious": 9272,
      "Greater": 9273,
      "notorious": 9274,
      "savings": 9275,
      "Albert": 9276,
      "intens": 9277,
      "pledged": 9278,
      "Neymar": 9279,
      "challenged": 9280,
      "migration": 9281,
      "slip": 9282,
      "battled": 9283,
      "Sophie": 9284,
      "Tower": 9285,
      "exhaust": 9286,
      "Bey": 9287,
      "sacked": 9288,
      "tops": 9289,
      "intimid": 9290,
      "felony": 9291,
      "Nevada": 9292,
      "kilometers": 9293,
      "Through": 9294,
      "hopeful": 9295,
      "82": 9296,
      "memo": 9297,
      "finance": 9298,
      "listening": 9299,
      "cabin": 9300,
      "asylum": 9301,
      "borrow": 9302,
      "reign": 9303,
      "unprecedented": 9304,
      "stershire": 9305,
      "Brady": 9306,
      "liquid": 9307,
      "obesity": 9308,
      "ication": 9309,
      "oko": 9310,
      "Islands": 9311,
      "manslaughter": 9312,
      "bleeding": 9313,
      "Develo": 9314,
      "lia": 9315,
      "caring": 9316,
      "Boeh": 9317,
      "replacement": 9318,
      "cyber": 9319,
      "differences": 9320,
      "bold": 9321,
      "Wiscons": 9322,
      "gross": 9323,
      "gifts": 9324,
      "toys": 9325,
      "watches": 9326,
      "Price": 9327,
      "covers": 9328,
      "boots": 9329,
      "perspect": 9330,
      "Carib": 9331,
      "Entertain": 9332,
      "Emirates": 9333,
      "UE": 9334,
      "gentle": 9335,
      "examination": 9336,
      "calories": 9337,
      "Witness": 9338,
      "toddler": 9339,
      "Wisconsin": 9340,
      "fixed": 9341,
      "orange": 9342,
      "Tsarnaev": 9343,
      "horrible": 9344,
      "Kirk": 9345,
      "siblings": 9346,
      "phr": 9347,
      "bloody": 9348,
      "anson": 9349,
      "Thousands": 9350,
      "Gay": 9351,
      "alo": 9352,
      "tornado": 9353,
      "addy": 9354,
      "privile": 9355,
      "sav": 9356,
      "storms": 9357,
      "Was": 9358,
      "pless": 9359,
      "documented": 9360,
      "ici": 9361,
      "scul": 9362,
      "resent": 9363,
      "Dale": 9364,
      "LS": 9365,
      "Wemble": 9366,
      "landscape": 9367,
      "Wembley": 9368,
      "examined": 9369,
      "institutions": 9370,
      "Chair": 9371,
      "wives": 9372,
      "Bark": 9373,
      "Carr": 9374,
      "rapidly": 9375,
      "tips": 9376,
      "urging": 9377,
      "underwent": 9378,
      "affects": 9379,
      "conversations": 9380,
      "liest": 9381,
      "cardi": 9382,
      "screening": 9383,
      "invasion": 9384,
      "Brooks": 9385,
      "Capital": 9386,
      "130": 9387,
      "porno": 9388,
      "Indeed": 9389,
      "Run": 9390,
      "liver": 9391,
      "HO": 9392,
      "delays": 9393,
      "custom": 9394,
      "troubled": 9395,
      "association": 9396,
      "idal": 9397,
      "deleg": 9398,
      "torm": 9399,
      "cure": 9400,
      "signal": 9401,
      "Monaco": 9402,
      "1989": 9403,
      "Ener": 9404,
      "improving": 9405,
      "Owen": 9406,
      "sie": 9407,
      "rely": 9408,
      "islands": 9409,
      "ahu": 9410,
      "tower": 9411,
      "astronaut": 9412,
      "recognition": 9413,
      "choices": 9414,
      "een": 9415,
      "ashire": 9416,
      "midnight": 9417,
      "treas": 9418,
      "aws": 9419,
      "Hond": 9420,
      "Victim": 9421,
      "Freedom": 9422,
      "zes": 9423,
      "Lancashire": 9424,
      "respected": 9425,
      "1991": 9426,
      "Boehner": 9427,
      "deficit": 9428,
      "rena": 9429,
      "generations": 9430,
      "arrives": 9431,
      "heroin": 9432,
      "difficulties": 9433,
      "lifting": 9434,
      "jumping": 9435,
      "legitimate": 9436,
      "dresses": 9437,
      "Yan": 9438,
      "Caribbean": 9439,
      "haz": 9440,
      "organized": 9441,
      "izza": 9442,
      "Ferrari": 9443,
      "methods": 9444,
      "het": 9445,
      "arguing": 9446,
      "Castle": 9447,
      "boasts": 9448,
      "seemingly": 9449,
      "triggered": 9450,
      "Sent": 9451,
      "iverse": 9452,
      "explosive": 9453,
      "Brussels": 9454,
      "lasted": 9455,
      "discussions": 9456,
      "romantic": 9457,
      "humili": 9458,
      "Rh": 9459,
      "cosm": 9460,
      "button": 9461,
      "complicated": 9462,
      "Mes": 9463,
      "Mitt": 9464,
      "antha": 9465,
      "tourism": 9466,
      "frustrated": 9467,
      "350": 9468,
      "illo": 9469,
      "ception": 9470,
      "exploded": 9471,
      "globe": 9472,
      "Ak": 9473,
      "inth": 9474,
      "Sex": 9475,
      "category": 9476,
      "wooden": 9477,
      "recall": 9478,
      "analysts": 9479,
      "anxiety": 9480,
      "convictions": 9481,
      "Abr": 9482,
      "Tragic": 9483,
      "representatives": 9484,
      "conclusion": 9485,
      "intensive": 9486,
      "hopefully": 9487,
      "CDC": 9488,
      "bride": 9489,
      "Carlos": 9490,
      "hostage": 9491,
      "roots": 9492,
      "forming": 9493,
[...]
